{
  "version": "1.0",
  "truncation": null,
  "padding": null,
  "added_tokens": [
    {
      "id": 0,
      "content": "[UNK]",
      "single_word": false,
      "lstrip": false,
      "rstrip": false,
      "normalized": false,
      "special": true
    }
  ],
  "normalizer": {
    "type": "Sequence",
    "normalizers": [
      {
        "type": "NFD"
      },
      {
        "type": "Lowercase"
      },
      {
        "type": "StripAccents"
      }
    ]
  },
  "pre_tokenizer": {
    "type": "Whitespace"
  },
  "post_processor": null,
  "decoder": null,
  "model": {
    "type": "BPE",
    "dropout": null,
    "unk_token": "[UNK]",
    "continuing_subword_prefix": null,
    "end_of_word_suffix": null,
    "fuse_unk": false,
    "byte_fallback": false,
    "ignore_merges": false,
    "vocab": {
      "[UNK]": 0,
      "a": 1,
      "b": 2,
      "c": 3,
      "d": 4,
      "e": 5,
      "f": 6,
      "g": 7,
      "h": 8,
      "i": 9,
      "j": 10,
      "k": 11,
      "l": 12,
      "m": 13,
      "n": 14,
      "o": 15,
      "p": 16,
      "q": 17,
      "r": 18,
      "s": 19,
      "t": 20,
      "u": 21,
      "v": 22,
      "w": 23,
      "x": 24,
      "y": 25,
      "z": 26,
      "º": 27,
      "ß": 28,
      "æ": 29,
      "ð": 30,
      "ø": 31,
      "in": 32,
      "er": 33,
      "es": 34,
      "en": 35,
      "on": 36,
      "re": 37,
      "ing": 38,
      "an": 39,
      "al": 40,
      "st": 41,
      "ar": 42,
      "ed": 43,
      "or": 44,
      "at": 45,
      "ou": 46,
      "il": 47,
      "th": 48,
      "le": 49,
      "ly": 50,
      "ch": 51,
      "ct": 52,
      "se": 53,
      "it": 54,
      "vi": 55,
      "li": 56,
      "mo": 57,
      "ent": 58,
      "om": 59,
      "ic": 60,
      "lo": 61,
      "ad": 62,
      "el": 63,
      "ion": 64,
      "ay": 65,
      "ri": 66,
      "ro": 67,
      "ev": 68,
      "sh": 69,
      "gh": 70,
      "et": 71,
      "am": 72,
      "movi": 73,
      "fil": 74,
      "act": 75,
      "di": 76,
      "un": 77,
      "im": 78,
      "film": 79,
      "ke": 80,
      "one": 81,
      "as": 82,
      "ce": 83,
      "de": 84,
      "movie": 85,
      "ers": 86,
      "go": 87,
      "ve": 88,
      "ol": 89,
      "ap": 90,
      "su": 91,
      "ow": 92,
      "com": 93,
      "ul": 94,
      "pe": 95,
      "ma": 96,
      "ally": 97,
      "sc": 98,
      "ck": 99,
      "od": 100,
      "est": 101,
      "la": 102,
      "ess": 103,
      "ir": 104,
      "man": 105,
      "ab": 106,
      "ex": 107,
      "ght": 108,
      "po": 109,
      "ld": 110,
      "em": 111,
      "tr": 112,
      "ur": 113,
      "ever": 114,
      "ant": 115,
      "be": 116,
      "op": 117,
      "us": 118,
      "ut": 119,
      "is": 120,
      "end": 121,
      "fe": 122,
      "ter": 123,
      "id": 124,
      "ag": 125,
      "con": 126,
      "art": 127,
      "ould": 128,
      "thing": 129,
      "and": 130,
      "wor": 131,
      "ell": 132,
      "oun": 133,
      "like": 134,
      "ne": 135,
      "pro": 136,
      "ot": 137,
      "per": 138,
      "ous": 139,
      "for": 140,
      "ok": 141,
      "qu": 142,
      "ast": 143,
      "ill": 144,
      "ive": 145,
      "ther": 146,
      "char": 147,
      "ta": 148,
      "ation": 149,
      "tim": 150,
      "nt": 151,
      "get": 152,
      "way": 153,
      "ind": 154,
      "pl": 155,
      "ment": 156,
      "ate": 157,
      "atch": 158,
      "stor": 159,
      "ra": 160,
      "ver": 161,
      "so": 162,
      "ig": 163,
      "wh": 164,
      "ful": 165,
      "good": 166,
      "ear": 167,
      "int": 168,
      "der": 169,
      "ff": 170,
      "reat": 171,
      "bo": 172,
      "ist": 173,
      "charact": 174,
      "all": 175,
      "mu": 176,
      "watch": 177,
      "ge": 178,
      "story": 179,
      "thou": 180,
      "see": 181,
      "ong": 182,
      "ard": 183,
      "ome": 184,
      "jo": 185,
      "even": 186,
      "would": 187,
      "able": 188,
      "ity": 189,
      "sp": 190,
      "gu": 191,
      "ci": 192,
      "pt": 193,
      "gr": 194,
      "um": 195,
      "ound": 196,
      "time": 197,
      "ite": 198,
      "no": 199,
      "ine": 200,
      "pre": 201,
      "te": 202,
      "ath": 203,
      "lot": 204,
      "ont": 205,
      "ight": 206,
      "ack": 207,
      "king": 208,
      "ies": 209,
      "red": 210,
      "really": 211,
      "ac": 212,
      "show": 213,
      "ble": 214,
      "well": 215,
      "me": 216,
      "wo": 217,
      "scen": 218,
      "ple": 219,
      "itt": 220,
      "pr": 221,
      "play": 222,
      "wi": 223,
      "ep": 224,
      "do": 225,
      "fa": 226,
      "our": 227,
      "ure": 228,
      "now": 229,
      "co": 230,
      "ade": 231,
      "look": 232,
      "some": 233,
      "sa": 234,
      "low": 235,
      "thin": 236,
      "great": 237,
      "ort": 238,
      "bad": 239,
      "ence": 240,
      "rect": 241,
      "he": 242,
      "age": 243,
      "much": 244,
      "cl": 245,
      "fir": 246,
      "br": 247,
      "si": 248,
      "peop": 249,
      "could": 250,
      "dr": 251,
      "every": 252,
      "ud": 253,
      "direct": 254,
      "know": 255,
      "real": 256,
      "ass": 257,
      "first": 258,
      "also": 259,
      "people": 260,
      "part": 261,
      "ty": 262,
      "ber": 263,
      "du": 264,
      "ew": 265,
      "make": 266,
      "wr": 267,
      "ors": 268,
      "any": 269,
      "iv": 270,
      "fun": 271,
      "old": 272,
      "ser": 273,
      "dont": 274,
      "au": 275,
      "ie": 276,
      "kes": 277,
      "ame": 278,
      "app": 279,
      "made": 280,
      "ick": 281,
      "mar": 282,
      "hi": 283,
      "str": 284,
      "movies": 285,
      "inter": 286,
      "ans": 287,
      "films": 288,
      "think": 289,
      "say": 290,
      "seem": 291,
      "ice": 292,
      "ated": 293,
      "characters": 294,
      "ces": 295,
      "des": 296,
      "ca": 297,
      "work": 298,
      "ical": 299,
      "pos": 300,
      "plot": 301,
      "min": 302,
      "fin": 303,
      "less": 304,
      "view": 305,
      "character": 306,
      "tain": 307,
      "back": 308,
      "though": 309,
      "ak": 310,
      "ef": 311,
      "ance": 312,
      "point": 313,
      "av": 314,
      "bet": 315,
      "love": 316,
      "dis": 317,
      "fr": 318,
      "many": 319,
      "pect": 320,
      "two": 321,
      "ens": 322,
      "ang": 323,
      "ny": 324,
      "acting": 325,
      "ious": 326,
      "seen": 327,
      "never": 328,
      "ho": 329,
      "fect": 330,
      "year": 331,
      "want": 332,
      "hor": 333,
      "life": 334,
      "up": 335,
      "pla": 336,
      "best": 337,
      "ary": 338,
      "we": 339,
      "ittle": 340,
      "ry": 341,
      "tur": 342,
      "little": 343,
      "pa": 344,
      "ough": 345,
      "new": 346,
      "fi": 347,
      "her": 348,
      "ft": 349,
      "cre": 350,
      "may": 351,
      "ster": 352,
      "ys": 353,
      "to": 354,
      "kill": 355,
      "cent": 356,
      "att": 357,
      "pri": 358,
      "fri": 359,
      "res": 360,
      "mi": 361,
      "ily": 362,
      "the": 363,
      "ph": 364,
      "ts": 365,
      "still": 366,
      "ning": 367,
      "ins": 368,
      "ats": 369,
      "tru": 370,
      "better": 371,
      "car": 372,
      "iz": 373,
      "les": 374,
      "amer": 375,
      "aw": 376,
      "fo": 377,
      "over": 378,
      "ved": 379,
      "ction": 380,
      "ually": 381,
      "gen": 382,
      "perfor": 383,
      "find": 384,
      "who": 385,
      "ather": 386,
      "day": 387,
      "sur": 388,
      "eve": 389,
      "read": 390,
      "ying": 391,
      "cr": 392,
      "cast": 393,
      "ves": 394,
      "scene": 395,
      "che": 396,
      "come": 397,
      "feel": 398,
      "out": 399,
      "peci": 400,
      "tal": 401,
      "son": 402,
      "scenes": 403,
      "sim": 404,
      "interest": 405,
      "ano": 406,
      "stand": 407,
      "star": 408,
      "ertain": 409,
      "ater": 410,
      "fam": 411,
      "happ": 412,
      "cho": 413,
      "something": 414,
      "par": 415,
      "bu": 416,
      "bl": 417,
      "ip": 418,
      "tri": 419,
      "friend": 420,
      "irl": 421,
      "beli": 422,
      "you": 423,
      "vers": 424,
      "sing": 425,
      "ob": 426,
      "ree": 427,
      "mon": 428,
      "girl": 429,
      "ting": 430,
      "how": 431,
      "ense": 432,
      "scre": 433,
      "war": 434,
      "wom": 435,
      "ably": 436,
      "ason": 437,
      "did": 438,
      "ating": 439,
      "performan": 440,
      "got": 441,
      "pret": 442,
      "turn": 443,
      "right": 444,
      "ions": 445,
      "mus": 446,
      "actors": 447,
      "does": 448,
      "ffer": 449,
      "ish": 450,
      "watching": 451,
      "row": 452,
      "years": 453,
      "doesnt": 454,
      "funny": 455,
      "giv": 456,
      "big": 457,
      "bit": 458,
      "sy": 459,
      "joy": 460,
      "lack": 461,
      "under": 462,
      "mem": 463,
      "fact": 464,
      "ire": 465,
      "pers": 466,
      "ror": 467,
      "didnt": 468,
      "set": 469,
      "oung": 470,
      "ext": 471,
      "start": 472,
      "ial": 473,
      "long": 474,
      "another": 475,
      "ide": 476,
      "young": 477,
      "comed": 478,
      "director": 479,
      "ving": 480,
      "makes": 481,
      "ways": 482,
      "nothing": 483,
      "hu": 484,
      "mis": 485,
      "lau": 486,
      "most": 487,
      "actually": 488,
      "going": 489,
      "ments": 490,
      "orig": 491,
      "light": 492,
      "port": 493,
      "ks": 494,
      "high": 495,
      "world": 496,
      "produ": 497,
      "illi": 498,
      "exc": 499,
      "origin": 500,
      "col": 501,
      "put": 502,
      "ach": 503,
      "comm": 504,
      "ult": 505,
      "enjoy": 506,
      "ian": 507,
      "sup": 508,
      "lu": 509,
      "je": 510,
      "sin": 511,
      "action": 512,
      "ll": 513,
      "bor": 514,
      "aut": 515,
      "comes": 516,
      "hel": 517,
      "ste": 518,
      "sub": 519,
      "far": 520,
      "ute": 521,
      "ild": 522,
      "ents": 523,
      "cle": 524,
      "cont": 525,
      "hard": 526,
      "cor": 527,
      "ced": 528,
      "thought": 529,
      "ni": 530,
      "wood": 531,
      "ru": 532,
      "cant": 533,
      "won": 534,
      "appe": 535,
      "cap": 536,
      "thats": 537,
      "ript": 538,
      "az": 539,
      "ner": 540,
      "quite": 541,
      "bro": 542,
      "comple": 543,
      "original": 544,
      "things": 545,
      "screen": 546,
      "eng": 547,
      "kid": 548,
      "need": 549,
      "pretty": 550,
      "my": 551,
      "por": 552,
      "mer": 553,
      "cept": 554,
      "sex": 555,
      "around": 556,
      "seems": 557,
      "person": 558,
      "are": 559,
      "ase": 560,
      "mind": 561,
      "iting": 562,
      "horror": 563,
      "wonder": 564,
      "pi": 565,
      "effect": 566,
      "inv": 567,
      "ds": 568,
      "take": 569,
      "main": 570,
      "sure": 571,
      "however": 572,
      "fort": 573,
      "beg": 574,
      "script": 575,
      "give": 576,
      "kind": 577,
      "bas": 578,
      "tell": 579,
      "ings": 580,
      "gets": 581,
      "laugh": 582,
      "tra": 583,
      "enough": 584,
      "saw": 585,
      "ically": 586,
      "sm": 587,
      "interesting": 588,
      "press": 589,
      "americ": 590,
      "last": 591,
      "ately": 592,
      "ations": 593,
      "ular": 594,
      "not": 595,
      "pres": 596,
      "sol": 597,
      "vel": 598,
      "hand": 599,
      "cour": 600,
      "expect": 601,
      "cu": 602,
      "must": 603,
      "ss": 604,
      "class": 605,
      "series": 606,
      "let": 607,
      "ness": 608,
      "worth": 609,
      "beaut": 610,
      "night": 611,
      "comp": 612,
      "als": 613,
      "times": 614,
      "mot": 615,
      "grap": 616,
      "withou": 617,
      "without": 618,
      "its": 619,
      "cess": 620,
      "used": 621,
      "led": 622,
      "reason": 623,
      "always": 624,
      "bar": 625,
      "comedy": 626,
      "mat": 627,
      "ody": 628,
      "music": 629,
      "isnt": 630,
      "done": 631,
      "role": 632,
      "hol": 633,
      "lead": 634,
      "hes": 635,
      "vious": 636,
      "utes": 637,
      "ines": 638,
      "call": 639,
      "theres": 640,
      "clo": 641,
      "ending": 642,
      "almost": 643,
      "shot": 644,
      "book": 645,
      "hy": 646,
      "thr": 647,
      "sequ": 648,
      "least": 649,
      "land": 650,
      "family": 651,
      "ale": 652,
      "differ": 653,
      "whole": 654,
      "med": 655,
      "rel": 656,
      "making": 657,
      "side": 658,
      "line": 659,
      "might": 660,
      "ons": 661,
      "ms": 662,
      "head": 663,
      "alo": 664,
      "wa": 665,
      "care": 666,
      "sound": 667,
      "prob": 668,
      "vis": 669,
      "use": 670,
      "ger": 671,
      "ouse": 672,
      "guy": 673,
      "ha": 674,
      "pie": 675,
      "away": 676,
      "own": 677,
      "coun": 678,
      "ank": 679,
      "try": 680,
      "run": 681,
      "complete": 682,
      "anything": 683,
      "minutes": 684,
      "wal": 685,
      "off": 686,
      "tv": 687,
      "found": 688,
      "ia": 689,
      "hal": 690,
      "da": 691,
      "spo": 692,
      "cri": 693,
      "ann": 694,
      "since": 695,
      "performance": 696,
      "sho": 697,
      "hn": 698,
      "super": 699,
      "fully": 700,
      "lic": 701,
      "fol": 702,
      "ey": 703,
      "probably": 704,
      "audi": 705,
      "den": 706,
      "entertain": 707,
      "ual": 708,
      "rible": 709,
      "mean": 710,
      "help": 711,
      "yet": 712,
      "rist": 713,
      "gg": 714,
      "tw": 715,
      "woman": 716,
      "came": 717,
      "john": 718,
      "rest": 719,
      "ane": 720,
      "dram": 721,
      "ark": 722,
      "fli": 723,
      "rather": 724,
      "worst": 725,
      "played": 726,
      "ange": 727,
      "ship": 728,
      "asnt": 729,
      "men": 730,
      "ked": 731,
      "cra": 732,
      "os": 733,
      "house": 734,
      "place": 735,
      "speci": 736,
      "oney": 737,
      "cut": 738,
      "thers": 739,
      "poor": 740,
      "ones": 741,
      "stu": 742,
      "epis": 743,
      "blo": 744,
      "cli": 745,
      "beauti": 746,
      "har": 747,
      "cur": 748,
      "cons": 749,
      "ore": 750,
      "anim": 751,
      "ative": 752,
      "anyone": 753,
      "mur": 754,
      "hum": 755,
      "dialo": 756,
      "happen": 757,
      "boy": 758,
      "ave": 759,
      "especi": 760,
      "rid": 761,
      "keep": 762,
      "although": 763,
      "especially": 764,
      "different": 765,
      "course": 766,
      "bud": 767,
      "believe": 768,
      "ograp": 769,
      "ign": 770,
      "ition": 771,
      "surpri": 772,
      "cin": 773,
      "cid": 774,
      "sk": 775,
      "looking": 776,
      "ju": 777,
      "job": 778,
      "mor": 779,
      "secon": 780,
      "empt": 781,
      "appear": 782,
      "trying": 783,
      "dan": 784,
      "ond": 785,
      "goes": 786,
      "fan": 787,
      "ped": 788,
      "vo": 789,
      "pict": 790,
      "possi": 791,
      "perfect": 792,
      "gl": 793,
      "black": 794,
      "body": 795,
      "dv": 796,
      "tit": 797,
      "ue": 798,
      "pow": 799,
      "sense": 800,
      "peri": 801,
      "shows": 802,
      "looks": 803,
      "ics": 804,
      "human": 805,
      "ither": 806,
      "plays": 807,
      "bly": 808,
      "add": 809,
      "cy": 810,
      "atur": 811,
      "fall": 812,
      "member": 813,
      "creat": 814,
      "fight": 815,
      "actor": 816,
      "lish": 817,
      "cha": 818,
      "posed": 819,
      "hear": 820,
      "proble": 821,
      "commend": 822,
      "ele": 823,
      "amp": 824,
      "gether": 825,
      "sty": 826,
      "true": 827,
      "together": 828,
      "money": 829,
      "ven": 830,
      "imag": 831,
      "cer": 832,
      "ile": 833,
      "wasnt": 834,
      "maybe": 835,
      "fic": 836,
      "stead": 837,
      "ward": 838,
      "val": 839,
      "simp": 840,
      "usu": 841,
      "ject": 842,
      "nice": 843,
      "short": 844,
      "everything": 845,
      "miss": 846,
      "ken": 847,
      "wast": 848,
      "but": 849,
      "follow": 850,
      "half": 851,
      "certain": 852,
      "ilar": 853,
      "fel": 854,
      "vide": 855,
      "fer": 856,
      "american": 857,
      "bre": 858,
      "recommend": 859,
      "rom": 860,
      "det": 861,
      "later": 862,
      "iter": 863,
      "gre": 864,
      "istic": 865,
      "watched": 866,
      "gue": 867,
      "fav": 868,
      "ton": 869,
      "ality": 870,
      "cing": 871,
      "dead": 872,
      "three": 873,
      "someone": 874,
      "dvd": 875,
      "bur": 876,
      "death": 877,
      "pet": 878,
      "version": 879,
      "obvious": 880,
      "takes": 881,
      "ling": 882,
      "sit": 883,
      "ney": 884,
      "said": 885,
      "ates": 886,
      "ences": 887,
      "rele": 888,
      "special": 889,
      "father": 890,
      "understand": 891,
      "aps": 892,
      "instead": 893,
      "na": 894,
      "effects": 895,
      "what": 896,
      "review": 897,
      "excell": 898,
      "christ": 899,
      "beautiful": 900,
      "cou": 901,
      "form": 902,
      "arent": 903,
      "piece": 904,
      "top": 905,
      "left": 906,
      "ames": 907,
      "hour": 908,
      "heart": 909,
      "ider": 910,
      "log": 911,
      "incl": 912,
      "ory": 913,
      "audience": 914,
      "que": 915,
      "gener": 916,
      "ps": 917,
      "camer": 918,
      "excellent": 919,
      "wife": 920,
      "begin": 921,
      "everyone": 922,
      "second": 923,
      "vid": 924,
      "fla": 925,
      "defin": 926,
      "seeing": 927,
      "shes": 928,
      "disc": 929,
      "ional": 930,
      "else": 931,
      "tot": 932,
      "lywood": 933,
      "eas": 934,
      "spe": 935,
      "omb": 936,
      "af": 937,
      "itch": 938,
      "ted": 939,
      "entire": 940,
      "cal": 941,
      "friends": 942,
      "partic": 943,
      "idea": 944,
      "vin": 945,
      "serious": 946,
      "fortun": 947,
      "ited": 948,
      "remember": 949,
      "pu": 950,
      "using": 951,
      "aught": 952,
      "invol": 953,
      "sci": 954,
      "cop": 955,
      "stup": 956,
      "stre": 957,
      "bb": 958,
      "home": 959,
      "ise": 960,
      "face": 961,
      "hero": 962,
      "ker": 963,
      "appoint": 964,
      "production": 965,
      "given": 966,
      "simply": 967,
      "suc": 968,
      "ists": 969,
      "youre": 970,
      "ism": 971,
      "believ": 972,
      "sil": 973,
      "exp": 974,
      "song": 975,
      "attempt": 976,
      "stupid": 977,
      "evil": 978,
      "they": 979,
      "vil": 980,
      "tray": 981,
      "disappoint": 982,
      "sad": 983,
      "dre": 984,
      "kids": 985,
      "rent": 986,
      "dou": 987,
      "clear": 988,
      "wrong": 989,
      "hollywood": 990,
      "bra": 991,
      "mess": 992,
      "portray": 993,
      "ten": 994,
      "open": 995,
      "pass": 996,
      "ends": 997,
      "dark": 998,
      "along": 999,
      "completely": 1000,
      "budget": 1001,
      "supposed": 1002,
      "ull": 1003,
      "near": 1004,
      "ail": 1005,
      "full": 1006,
      "mark": 1007,
      "absol": 1008,
      "num": 1009,
      "either": 1010,
      "except": 1011,
      "band": 1012,
      "boring": 1013,
      "chool": 1014,
      "dri": 1015,
      "absolute": 1016,
      "lig": 1017,
      "amaz": 1018,
      "ress": 1019,
      "cks": 1020,
      "classic": 1021,
      "lar": 1022,
      "ards": 1023,
      "small": 1024,
      "ned": 1025,
      "ross": 1026,
      "performances": 1027,
      "ature": 1028,
      "particular": 1029,
      "jack": 1030,
      "ined": 1031,
      "fail": 1032,
      "school": 1033,
      "consider": 1034,
      "itten": 1035,
      "camera": 1036,
      "air": 1037,
      "list": 1038,
      "atic": 1039,
      "power": 1040,
      "exam": 1041,
      "child": 1042,
      "awful": 1043,
      "soci": 1044,
      "viol": 1045,
      "sel": 1046,
      "emot": 1047,
      "nor": 1048,
      "women": 1049,
      "truly": 1050,
      "murder": 1051,
      "stru": 1052,
      "video": 1053,
      "cas": 1054,
      "vent": 1055,
      "mid": 1056,
      "stars": 1057,
      "chil": 1058,
      "present": 1059,
      "ready": 1060,
      "next": 1061,
      "gi": 1062,
      "fant": 1063,
      "case": 1064,
      "mr": 1065,
      "favor": 1066,
      "live": 1067,
      "cinem": 1068,
      "bi": 1069,
      "sever": 1070,
      "hope": 1071,
      "couple": 1072,
      "definite": 1073,
      "playing": 1074,
      "name": 1075,
      "die": 1076,
      "haps": 1077,
      "scar": 1078,
      "deli": 1079,
      "ird": 1080,
      "ode": 1081,
      "sort": 1082,
      "perhaps": 1083,
      "getting": 1084,
      "slow": 1085,
      "evelo": 1086,
      "gs": 1087,
      "quest": 1088,
      "others": 1089,
      "els": 1090,
      "ities": 1091,
      "gar": 1092,
      "dist": 1093,
      "ming": 1094,
      "lines": 1095,
      "oft": 1096,
      "ography": 1097,
      "moments": 1098,
      "wonderful": 1099,
      "win": 1100,
      "iness": 1101,
      "mother": 1102,
      "tom": 1103,
      "develo": 1104,
      "episode": 1105,
      "includ": 1106,
      "pol": 1107,
      "path": 1108,
      "room": 1109,
      "spir": 1110,
      "deser": 1111,
      "ring": 1112,
      "stop": 1113,
      "terrible": 1114,
      "ah": 1115,
      "loved": 1116,
      "written": 1117,
      "vict": 1118,
      "sat": 1119,
      "strong": 1120,
      "humor": 1121,
      "meet": 1122,
      "felt": 1123,
      "ages": 1124,
      "often": 1125,
      "ley": 1126,
      "ital": 1127,
      "liked": 1128,
      "mention": 1129,
      "gives": 1130,
      "oh": 1131,
      "ased": 1132,
      "bert": 1133,
      "oc": 1134,
      "actress": 1135,
      "unch": 1136,
      "ility": 1137,
      "definitely": 1138,
      "wer": 1139,
      "ingly": 1140,
      "ired": 1141,
      "drama": 1142,
      "brilli": 1143,
      "yes": 1144,
      "unfortun": 1145,
      "mag": 1146,
      "dict": 1147,
      "style": 1148,
      "early": 1149,
      "impress": 1150,
      "experi": 1151,
      "guess": 1152,
      "aged": 1153,
      "talent": 1154,
      "turns": 1155,
      "lost": 1156,
      "god": 1157,
      "ought": 1158,
      "cine": 1159,
      "coming": 1160,
      "ams": 1161,
      "childr": 1162,
      "ere": 1163,
      "become": 1164,
      "sed": 1165,
      "fair": 1166,
      "finally": 1167,
      "fl": 1168,
      "dialogue": 1169,
      "etim": 1170,
      "cla": 1171,
      "ures": 1172,
      "tod": 1173,
      "ace": 1174,
      "pop": 1175,
      "credi": 1176,
      "gun": 1177,
      "reg": 1178,
      "plan": 1179,
      "white": 1180,
      "dy": 1181,
      "som": 1182,
      "couldnt": 1183,
      "thrill": 1184,
      "hon": 1185,
      "extre": 1186,
      "close": 1187,
      "ize": 1188,
      "hun": 1189,
      "title": 1190,
      "possible": 1191,
      "went": 1192,
      "dra": 1193,
      "master": 1194,
      "absolutely": 1195,
      "support": 1196,
      "cinema": 1197,
      "desp": 1198,
      "them": 1199,
      "town": 1200,
      "tou": 1201,
      "beh": 1202,
      "ground": 1203,
      "picture": 1204,
      "bri": 1205,
      "past": 1206,
      "blood": 1207,
      "worse": 1208,
      "waste": 1209,
      "certainly": 1210,
      "through": 1211,
      "hit": 1212,
      "called": 1213,
      "fine": 1214,
      "entertaining": 1215,
      "ulous": 1216,
      "psy": 1217,
      "problem": 1218,
      "brilliant": 1219,
      "mal": 1220,
      "io": 1221,
      "ns": 1222,
      "ended": 1223,
      "mas": 1224,
      "conf": 1225,
      "overall": 1226,
      "fans": 1227,
      "based": 1228,
      "relation": 1229,
      "tries": 1230,
      "beginning": 1231,
      "ball": 1232,
      "kers": 1233,
      "lear": 1234,
      "ping": 1235,
      "extreme": 1236,
      "cred": 1237,
      "nam": 1238,
      "success": 1239,
      "several": 1240,
      "pur": 1241,
      "spoil": 1242,
      "myster": 1243,
      "lad": 1244,
      "ding": 1245,
      "bel": 1246,
      "sw": 1247,
      "ali": 1248,
      "gy": 1249,
      "lives": 1250,
      "works": 1251,
      "ek": 1252,
      "sou": 1253,
      "killer": 1254,
      "gra": 1255,
      "direction": 1256,
      "ention": 1257,
      "known": 1258,
      "ester": 1259,
      "teen": 1260,
      "mentary": 1261,
      "track": 1262,
      "becomes": 1263,
      "already": 1264,
      "writing": 1265,
      "ben": 1266,
      "micha": 1267,
      "vision": 1268,
      "ord": 1269,
      "wanted": 1270,
      "girls": 1271,
      "van": 1272,
      "guys": 1273,
      "example": 1274,
      "none": 1275,
      "throughout": 1276,
      "decid": 1277,
      "days": 1278,
      "seemed": 1279,
      "ues": 1280,
      "despite": 1281,
      "zomb": 1282,
      "dep": 1283,
      "children": 1284,
      "leg": 1285,
      "plain": 1286,
      "jor": 1287,
      "pat": 1288,
      "ized": 1289,
      "unfortunately": 1290,
      "here": 1291,
      "touch": 1292,
      "wish": 1293,
      "daught": 1294,
      "final": 1295,
      "lie": 1296,
      "lice": 1297,
      "susp": 1298,
      "history": 1299,
      "indi": 1300,
      "rock": 1301,
      "antic": 1302,
      "relationship": 1303,
      "uses": 1304,
      "quality": 1305,
      "allow": 1306,
      "foot": 1307,
      "bed": 1308,
      "game": 1309,
      "amazing": 1310,
      "anno": 1311,
      "lin": 1312,
      "fem": 1313,
      "villa": 1314,
      "ude": 1315,
      "ris": 1316,
      "totally": 1317,
      "convin": 1318,
      "michael": 1319,
      "hop": 1320,
      "flick": 1321,
      "ham": 1322,
      "wont": 1323,
      "arr": 1324,
      "today": 1325,
      "wants": 1326,
      "tech": 1327,
      "can": 1328,
      "eless": 1329,
      "youll": 1330,
      "deal": 1331,
      "stay": 1332,
      "wise": 1333,
      "dest": 1334,
      "behind": 1335,
      "colle": 1336,
      "soon": 1337,
      "writer": 1338,
      "usual": 1339,
      "sometim": 1340,
      "bus": 1341,
      "ench": 1342,
      "stra": 1343,
      "mad": 1344,
      "fre": 1345,
      "stuff": 1346,
      "city": 1347,
      "fig": 1348,
      "sle": 1349,
      "stri": 1350,
      "uni": 1351,
      "sor": 1352,
      "crit": 1353,
      "rob": 1354,
      "cost": 1355,
      "throw": 1356,
      "mil": 1357,
      "theyre": 1358,
      "ron": 1359,
      "docu": 1360,
      "genre": 1361,
      "enjoyed": 1362,
      "hot": 1363,
      "parts": 1364,
      "hold": 1365,
      "sto": 1366,
      "import": 1367,
      "eyes": 1368,
      "intel": 1369,
      "contin": 1370,
      "trans": 1371,
      "umb": 1372,
      "orge": 1373,
      "ister": 1374,
      "ese": 1375,
      "late": 1376,
      "favorite": 1377,
      "by": 1378,
      "dam": 1379,
      "ery": 1380,
      "apparent": 1381,
      "police": 1382,
      "starts": 1383,
      "step": 1384,
      "where": 1385,
      "gave": 1386,
      "hell": 1387,
      "ler": 1388,
      "cked": 1389,
      "novel": 1390,
      "viewer": 1391,
      "sometimes": 1392,
      "directed": 1393,
      "break": 1394,
      "shoot": 1395,
      "omin": 1396,
      "bal": 1397,
      "lets": 1398,
      "moment": 1399,
      "etc": 1400,
      "sum": 1401,
      "horrible": 1402,
      "explo": 1403,
      "event": 1404,
      "incredi": 1405,
      "level": 1406,
      "itive": 1407,
      "pick": 1408,
      "grou": 1409,
      "exact": 1410,
      "chang": 1411,
      "word": 1412,
      "situ": 1413,
      "sch": 1414,
      "stories": 1415,
      "spect": 1416,
      "thinking": 1417,
      "bab": 1418,
      "met": 1419,
      "vol": 1420,
      "zy": 1421,
      "inst": 1422,
      "decent": 1423,
      "sher": 1424,
      "pay": 1425,
      "rap": 1426,
      "leav": 1427,
      "oid": 1428,
      "ety": 1429,
      "of": 1430,
      "tow": 1431,
      "lim": 1432,
      "fore": 1433,
      "major": 1434,
      "predict": 1435,
      "key": 1436,
      "killed": 1437,
      "voice": 1438,
      "cinemat": 1439,
      "ured": 1440,
      "musical": 1441,
      "hilar": 1442,
      "typ": 1443,
      "brit": 1444,
      "obviously": 1445,
      "willi": 1446,
      "feeling": 1447,
      "ridic": 1448,
      "taking": 1449,
      "pot": 1450,
      "mc": 1451,
      "ago": 1452,
      "pose": 1453,
      "highly": 1454,
      "believable": 1455,
      "adm": 1456,
      "appro": 1457,
      "matter": 1458,
      "stud": 1459,
      "hus": 1460,
      "preci": 1461,
      "anger": 1462,
      "gn": 1463,
      "looked": 1464,
      "etic": 1465,
      "four": 1466,
      "heard": 1467,
      "mart": 1468,
      "weak": 1469,
      "rating": 1470,
      "tre": 1471,
      "order": 1472,
      "type": 1473,
      "heav": 1474,
      "bring": 1475,
      "marri": 1476,
      "tele": 1477,
      "ffic": 1478,
      "jok": 1479,
      "sent": 1480,
      "move": 1481,
      "anyway": 1482,
      "fast": 1483,
      "var": 1484,
      "strange": 1485,
      "front": 1486,
      "roles": 1487,
      "says": 1488,
      "leave": 1489,
      "cru": 1490,
      "antly": 1491,
      "took": 1492,
      "living": 1493,
      "husband": 1494,
      "similar": 1495,
      "fut": 1496,
      "makers": 1497,
      "bers": 1498,
      "law": 1499,
      "james": 1500,
      "roll": 1501,
      "just": 1502,
      "ridiculous": 1503,
      "cult": 1504,
      "recent": 1505,
      "sexual": 1506,
      "violence": 1507,
      "daughter": 1508,
      "ba": 1509,
      "atta": 1510,
      "told": 1511,
      "lou": 1512,
      "forget": 1513,
      "cool": 1514,
      "ared": 1515,
      "ident": 1516,
      "happens": 1517,
      "mans": 1518,
      "cover": 1519,
      "shing": 1520,
      "particularly": 1521,
      "free": 1522,
      "era": 1523,
      "polit": 1524,
      "happened": 1525,
      "crap": 1526,
      "involved": 1527,
      "season": 1528,
      "whe": 1529,
      "experience": 1530,
      "chance": 1531,
      "extremely": 1532,
      "natur": 1533,
      "wouldnt": 1534,
      "moder": 1535,
      "brother": 1536,
      "visu": 1537,
      "pal": 1538,
      "alone": 1539,
      "opin": 1540,
      "dle": 1541,
      "mist": 1542,
      "happy": 1543,
      "change": 1544,
      "doub": 1545,
      "cheap": 1546,
      "gore": 1547,
      "hilarious": 1548,
      "down": 1549,
      "dies": 1550,
      "including": 1551,
      "memor": 1552,
      "ently": 1553,
      "hen": 1554,
      "pain": 1555,
      "please": 1556,
      "ug": 1557,
      "ino": 1558,
      "quick": 1559,
      "treat": 1560,
      "group": 1561,
      "deep": 1562,
      "sym": 1563,
      "expected": 1564,
      "self": 1565,
      "simple": 1566,
      "richar": 1567,
      "honest": 1568,
      "grow": 1569,
      "street": 1570,
      "annoying": 1571,
      "turned": 1572,
      "usually": 1573,
      "jap": 1574,
      "foc": 1575,
      "earth": 1576,
      "score": 1577,
      "lan": 1578,
      "thor": 1579,
      "arch": 1580,
      "urb": 1581,
      "save": 1582,
      "swe": 1583,
      "english": 1584,
      "phot": 1585,
      "anks": 1586,
      "number": 1587,
      "paul": 1588,
      "prom": 1589,
      "pleas": 1590,
      "avoid": 1591,
      "career": 1592,
      "david": 1593,
      "realistic": 1594,
      "huge": 1595,
      "country": 1596,
      "aking": 1597,
      "oscar": 1598,
      "ential": 1599,
      "terri": 1600,
      "gri": 1601,
      "odes": 1602,
      "frank": 1603,
      "taken": 1604,
      "scary": 1605,
      "ational": 1606,
      "check": 1607,
      "jud": 1608,
      "apart": 1609,
      "ants": 1610,
      "seriously": 1611,
      "japan": 1612,
      "ky": 1613,
      "reality": 1614,
      "pub": 1615,
      "exactly": 1616,
      "secre": 1617,
      "loc": 1618,
      "shown": 1619,
      "shed": 1620,
      "running": 1621,
      "cart": 1622,
      "modern": 1623,
      "draw": 1624,
      "imp": 1625,
      "box": 1626,
      "ances": 1627,
      "sun": 1628,
      "dec": 1629,
      "whose": 1630,
      "cinematography": 1631,
      "released": 1632,
      "shots": 1633,
      "jer": 1634,
      "hours": 1635,
      "jokes": 1636,
      "opening": 1637,
      "acted": 1638,
      "non": 1639,
      "words": 1640,
      "famil": 1641,
      "across": 1642,
      "straight": 1643,
      "opinion": 1644,
      "somewhat": 1645,
      "fire": 1646,
      "started": 1647,
      "eu": 1648,
      "escap": 1649,
      "itting": 1650,
      "ina": 1651,
      "sla": 1652,
      "bey": 1653,
      "ith": 1654,
      "respect": 1655,
      "eye": 1656,
      "middle": 1657,
      "lee": 1658,
      "enty": 1659,
      "rated": 1660,
      "ott": 1661,
      "finds": 1662,
      "talking": 1663,
      "bat": 1664,
      "sam": 1665,
      "among": 1666,
      "batt": 1667,
      "camp": 1668,
      "famous": 1669,
      "episodes": 1670,
      "saying": 1671,
      "ator": 1672,
      "intellig": 1673,
      "hav": 1674,
      "vir": 1675,
      "important": 1676,
      "robert": 1677,
      "mostly": 1678,
      "due": 1679,
      "documentary": 1680,
      "comment": 1681,
      "astic": 1682,
      "predictable": 1683,
      "develop": 1684,
      "directors": 1685,
      "ref": 1686,
      "subject": 1687,
      "female": 1688,
      "writ": 1689,
      "stun": 1690,
      "build": 1691,
      "richard": 1692,
      "oo": 1693,
      "ses": 1694,
      "single": 1695,
      "sequence": 1696,
      "suspense": 1697,
      "ray": 1698,
      "five": 1699,
      "yor": 1700,
      "ides": 1701,
      "deliver": 1702,
      "ake": 1703,
      "if": 1704,
      "ze": 1705,
      "sen": 1706,
      "featur": 1707,
      "talk": 1708,
      "appears": 1709,
      "apparently": 1710,
      "ony": 1711,
      "disappointed": 1712,
      "roy": 1713,
      "necess": 1714,
      "local": 1715,
      "gold": 1716,
      "beat": 1717,
      "creep": 1718,
      "remind": 1719,
      "sets": 1720,
      "ement": 1721,
      "events": 1722,
      "dream": 1723,
      "tar": 1724,
      "ana": 1725,
      "atmo": 1726,
      "capt": 1727,
      "songs": 1728,
      "rit": 1729,
      "attention": 1730,
      "atmosp": 1731,
      "basically": 1732,
      "wind": 1733,
      "prof": 1734,
      "count": 1735,
      "equ": 1736,
      "sess": 1737,
      "comic": 1738,
      "knows": 1739,
      "british": 1740,
      "sters": 1741,
      "falls": 1742,
      "fac": 1743,
      "knew": 1744,
      "utter": 1745,
      "clearly": 1746,
      "supporting": 1747,
      "lect": 1748,
      "future": 1749,
      "romantic": 1750,
      "dress": 1751,
      "ga": 1752,
      "ric": 1753,
      "sn": 1754,
      "television": 1755,
      "sl": 1756,
      "mary": 1757,
      "easily": 1758,
      "question": 1759,
      "match": 1760,
      "giving": 1761,
      "problems": 1762,
      "space": 1763,
      "thriller": 1764,
      "gang": 1765,
      "moving": 1766,
      "hood": 1767,
      "silly": 1768,
      "tells": 1769,
      "stage": 1770,
      "ultim": 1771,
      "ask": 1772,
      "detail": 1773,
      "del": 1774,
      "rich": 1775,
      "dance": 1776,
      "ost": 1777,
      "rad": 1778,
      "premi": 1779,
      "team": 1780,
      "appreci": 1781,
      "mix": 1782,
      "ised": 1783,
      "entertainment": 1784,
      "mater": 1785,
      "narr": 1786,
      "bs": 1787,
      "aver": 1788,
      "stick": 1789,
      "whats": 1790,
      "cat": 1791,
      "ustr": 1792,
      "beyond": 1793,
      "she": 1794,
      "upon": 1795,
      "ched": 1796,
      "compa": 1797,
      "esh": 1798,
      "unlike": 1799,
      "effort": 1800,
      "lady": 1801,
      "usion": 1802,
      "theat": 1803,
      "twist": 1804,
      "const": 1805,
      "working": 1806,
      "secret": 1807,
      "asy": 1808,
      "dro": 1809,
      "ability": 1810,
      "whether": 1811,
      "bill": 1812,
      "ctive": 1813,
      "ti": 1814,
      "dull": 1815,
      "aspect": 1816,
      "odd": 1817,
      "sequences": 1818,
      "points": 1819,
      "easy": 1820,
      "ution": 1821,
      "viewers": 1822,
      "carto": 1823,
      "cul": 1824,
      "fly": 1825,
      "hate": 1826,
      "fest": 1827,
      "intro": 1828,
      "material": 1829,
      "diffic": 1830,
      "enjoyable": 1831,
      "named": 1832,
      "progr": 1833,
      "period": 1834,
      "water": 1835,
      "aff": 1836,
      "flo": 1837,
      "adap": 1838,
      "actual": 1839,
      "george": 1840,
      "mystery": 1841,
      "finish": 1842,
      "needs": 1843,
      "dden": 1844,
      "deed": 1845,
      "previous": 1846,
      "setting": 1847,
      "tle": 1848,
      "feature": 1849,
      "ension": 1850,
      "shock": 1851,
      "cident": 1852,
      "lat": 1853,
      "ye": 1854,
      "within": 1855,
      "ination": 1856,
      "storyline": 1857,
      "french": 1858,
      "pac": 1859,
      "more": 1860,
      "trou": 1861,
      "ches": 1862,
      "kept": 1863,
      "animation": 1864,
      "convincing": 1865,
      "telling": 1866,
      "message": 1867,
      "advent": 1868,
      "theater": 1869,
      "vice": 1870,
      "lots": 1871,
      "ceed": 1872,
      "agon": 1873,
      "grand": 1874,
      "tale": 1875,
      "bunch": 1876,
      "wait": 1877,
      "writers": 1878,
      "prin": 1879,
      "sequel": 1880,
      "victim": 1881,
      "attr": 1882,
      "exist": 1883,
      "cial": 1884,
      "nearly": 1885,
      "theme": 1886,
      "ose": 1887,
      "survi": 1888,
      "havent": 1889,
      "wear": 1890,
      "wester": 1891,
      "doubt": 1892,
      "flaw": 1893,
      "feels": 1894,
      "parents": 1895,
      "personal": 1896,
      "jim": 1897,
      "bes": 1898,
      "truth": 1899,
      "speak": 1900,
      "lies": 1901,
      "claim": 1902,
      "forward": 1903,
      "slight": 1904,
      "kills": 1905,
      "surprised": 1906,
      "hom": 1907,
      "ives": 1908,
      "ctor": 1909,
      "contro": 1910,
      "fantastic": 1911,
      "sell": 1912,
      "sul": 1913,
      "accept": 1914,
      "york": 1915,
      "cry": 1916,
      "concer": 1917,
      "sible": 1918,
      "begins": 1919,
      "fied": 1920,
      "ength": 1921,
      "dramatic": 1922,
      "jum": 1923,
      "pon": 1924,
      "round": 1925,
      "dol": 1926,
      "dog": 1927,
      "surprising": 1928,
      "don": 1929,
      "rus": 1930,
      "flu": 1931,
      "inno": 1932,
      "trav": 1933,
      "sudden": 1934,
      "otic": 1935,
      "buy": 1936,
      "public": 1937,
      "ults": 1938,
      "gan": 1939,
      "unk": 1940,
      "comments": 1941,
      "reve": 1942,
      "gone": 1943,
      "trad": 1944,
      "sister": 1945,
      "ining": 1946,
      "issu": 1947,
      "andy": 1948,
      "soundtrack": 1949,
      "release": 1950,
      "max": 1951,
      "express": 1952,
      "elements": 1953,
      "profess": 1954,
      "discover": 1955,
      "typical": 1956,
      "mel": 1957,
      "editing": 1958,
      "ously": 1959,
      "tried": 1960,
      "medi": 1961,
      "general": 1962,
      "showing": 1963,
      "large": 1964,
      "difficult": 1965,
      "sugg": 1966,
      "soldi": 1967,
      "suggest": 1968,
      "viewing": 1969,
      "figure": 1970,
      "filmed": 1971,
      "ires": 1972,
      "ford": 1973,
      "note": 1974,
      "decided": 1975,
      "dialog": 1976,
      "catch": 1977,
      "ung": 1978,
      "contain": 1979,
      "natural": 1980,
      "post": 1981,
      "ury": 1982,
      "means": 1983,
      "ause": 1984,
      "peter": 1985,
      "pathetic": 1986,
      "rare": 1987,
      "paris": 1988,
      "studi": 1989,
      "fear": 1990,
      "sorry": 1991,
      "demon": 1992,
      "bil": 1993,
      "zz": 1994,
      "somehow": 1995,
      "meaning": 1996,
      "ening": 1997,
      "leads": 1998,
      "pul": 1999,
      "third": 2000,
      "ii": 2001,
      "lame": 2002,
      "ret": 2003,
      "ren": 2004,
      "tor": 2005,
      "lier": 2006,
      "exe": 2007,
      "psycho": 2008,
      "wit": 2009,
      "py": 2010,
      "business": 2011,
      "cro": 2012,
      "vamp": 2013,
      "greatest": 2014,
      "weird": 2015,
      "bul": 2016,
      "agree": 2017,
      "phil": 2018,
      "bla": 2019,
      "appeal": 2020,
      "crime": 2021,
      "brought": 2022,
      "introdu": 2023,
      "atmosphere": 2024,
      "boys": 2025,
      "prison": 2026,
      "imagine": 2027,
      "eth": 2028,
      "fred": 2029,
      "hur": 2030,
      "shame": 2031,
      "zombie": 2032,
      "igh": 2033,
      "whos": 2034,
      "liter": 2035,
      "pure": 2036,
      "accent": 2037,
      "fiel": 2038,
      "possibly": 2039,
      "ghost": 2040,
      "whatever": 2041,
      "descri": 2042,
      "hic": 2043,
      "reading": 2044,
      "tast": 2045,
      "learn": 2046,
      "gest": 2047,
      "conne": 2048,
      "indeed": 2049,
      "revol": 2050,
      "chees": 2051,
      "ially": 2052,
      "net": 2053,
      "other": 2054,
      "background": 2055,
      "reviews": 2056,
      "eventually": 2057,
      "fit": 2058,
      "standing": 2059,
      "average": 2060,
      "ged": 2061,
      "blow": 2062,
      "okay": 2063,
      "week": 2064,
      "poorly": 2065,
      "offer": 2066,
      "youve": 2067,
      "ape": 2068,
      "surprise": 2069,
      "premise": 2070,
      "unity": 2071,
      "teach": 2072,
      "japanese": 2073,
      "bear": 2074,
      "project": 2075,
      "fiction": 2076,
      "strugg": 2077,
      "write": 2078,
      "luck": 2079,
      "spirit": 2080,
      "sal": 2081,
      "nature": 2082,
      "forced": 2083,
      "baby": 2084,
      "iel": 2085,
      "exper": 2086,
      "leading": 2087,
      "flash": 2088,
      "joe": 2089,
      "fu": 2090,
      "thank": 2091,
      "effective": 2092,
      "fresh": 2093,
      "logical": 2094,
      "mentioned": 2095,
      "sha": 2096,
      "became": 2097,
      "concl": 2098,
      "killing": 2099,
      "result": 2100,
      "hair": 2101,
      "sleep": 2102,
      "screenplay": 2103,
      "needed": 2104,
      "ram": 2105,
      "cow": 2106,
      "jour": 2107,
      "ering": 2108,
      "disney": 2109,
      "euro": 2110,
      "pen": 2111,
      "rate": 2112,
      "imd": 2113,
      "minute": 2114,
      "romance": 2115,
      "ges": 2116,
      "ians": 2117,
      "ered": 2118,
      "costum": 2119,
      "ica": 2120,
      "interested": 2121,
      "fas": 2122,
      "aging": 2123,
      "gay": 2124,
      "stal": 2125,
      "loy": 2126,
      "bored": 2127,
      "leaves": 2128,
      "ior": 2129,
      "amoun": 2130,
      "memorable": 2131,
      "cers": 2132,
      "refer": 2133,
      "thy": 2134,
      "credits": 2135,
      "filmmakers": 2136,
      "emotional": 2137,
      "dev": 2138,
      "unless": 2139,
      "superb": 2140,
      "illing": 2141,
      "fran": 2142,
      "venge": 2143,
      "meets": 2144,
      "sick": 2145,
      "situation": 2146,
      "sweet": 2147,
      "otherwise": 2148,
      "ders": 2149,
      "kick": 2150,
      "meant": 2151,
      "histor": 2152,
      "stere": 2153,
      "popular": 2154,
      "emotion": 2155,
      "battle": 2156,
      "reco": 2157,
      "unique": 2158,
      "test": 2159,
      "emy": 2160,
      "clever": 2161,
      "earlier": 2162,
      "badly": 2163,
      "nific": 2164,
      "concept": 2165,
      "crazy": 2166,
      "flat": 2167,
      "comb": 2168,
      "dumb": 2169,
      "kar": 2170,
      "older": 2171,
      "embar": 2172,
      "worked": 2173,
      "casting": 2174,
      "design": 2175,
      "ral": 2176,
      "rede": 2177,
      "laughs": 2178,
      "after": 2179,
      "realize": 2180,
      "beauty": 2181,
      "society": 2182,
      "jane": 2183,
      "vet": 2184,
      "total": 2185,
      "ub": 2186,
      "oty": 2187,
      "gotten": 2188,
      "imdb": 2189,
      "footage": 2190,
      "bare": 2191,
      "mass": 2192,
      "milli": 2193,
      "plus": 2194,
      "iment": 2195,
      "green": 2196,
      "create": 2197,
      "lor": 2198,
      "mir": 2199,
      "wil": 2200,
      "america": 2201,
      "ink": 2202,
      "directing": 2203,
      "villain": 2204,
      "execut": 2205,
      "keeps": 2206,
      "iar": 2207,
      "fantasy": 2208,
      "development": 2209,
      "adapt": 2210,
      "thus": 2211,
      "features": 2212,
      "satis": 2213,
      "male": 2214,
      "ager": 2215,
      "monster": 2216,
      "sounds": 2217,
      "perfectly": 2218,
      "quickly": 2219,
      "fying": 2220,
      "suit": 2221,
      "contr": 2222,
      "creepy": 2223,
      "oper": 2224,
      "towards": 2225,
      "elling": 2226,
      "brings": 2227,
      "scifi": 2228,
      "western": 2229,
      "cted": 2230,
      "hands": 2231,
      "cheesy": 2232,
      "ls": 2233,
      "sar": 2234,
      "ier": 2235,
      "necessary": 2236,
      "shar": 2237,
      "ising": 2238,
      "science": 2239,
      "social": 2240,
      "occas": 2241,
      "bir": 2242,
      "cir": 2243,
      "sons": 2244,
      "brothers": 2245,
      "incredibly": 2246,
      "suffer": 2247,
      "plenty": 2248,
      "board": 2249,
      "walk": 2250,
      "techn": 2251,
      "scott": 2252,
      "mach": 2253,
      "christmas": 2254,
      "return": 2255,
      "ices": 2256,
      "cartoon": 2257,
      "joke": 2258,
      "fighting": 2259,
      "familiar": 2260,
      "neg": 2261,
      "girlfriend": 2262,
      "admit": 2263,
      "hill": 2264,
      "rand": 2265,
      "stat": 2266,
      "berg": 2267,
      "desper": 2268,
      "brain": 2269,
      "road": 2270,
      "bother": 2271,
      "acy": 2272,
      "stereoty": 2273,
      "nud": 2274,
      "scient": 2275,
      "fairly": 2276,
      "potential": 2277,
      "lyn": 2278,
      "powerful": 2279,
      "ero": 2280,
      "apped": 2281,
      "cute": 2282,
      "fat": 2283,
      "copy": 2284,
      "remake": 2285,
      "members": 2286,
      "william": 2287,
      "ths": 2288,
      "trash": 2289,
      "ash": 2290,
      "hardly": 2291,
      "dar": 2292,
      "bot": 2293,
      "imm": 2294,
      "hed": 2295,
      "six": 2296,
      "compet": 2297,
      "various": 2298,
      "drag": 2299,
      "masterpiece": 2300,
      "recogn": 2301,
      "invest": 2302,
      "field": 2303,
      "iny": 2304,
      "talented": 2305,
      "phys": 2306,
      "rupt": 2307,
      "wild": 2308,
      "fails": 2309,
      "acts": 2310,
      "aked": 2311,
      "portrayed": 2312,
      "married": 2313,
      "idi": 2314,
      "langu": 2315,
      "crow": 2316,
      "inside": 2317,
      "missing": 2318,
      "color": 2319,
      "ki": 2320,
      "emp": 2321,
      "island": 2322,
      "filled": 2323,
      "sco": 2324,
      "outside": 2325,
      "achi": 2326,
      "broad": 2327,
      "regard": 2328,
      "base": 2329,
      "uck": 2330,
      "ideas": 2331,
      "cold": 2332,
      "political": 2333,
      "ote": 2334,
      "nudity": 2335,
      "force": 2336,
      "positive": 2337,
      "crew": 2338,
      "logy": 2339,
      "respon": 2340,
      "company": 2341,
      "reasons": 2342,
      "elly": 2343,
      "expecting": 2344,
      "offic": 2345,
      "common": 2346,
      "deserves": 2347,
      "relig": 2348,
      "trail": 2349,
      "cause": 2350,
      "sign": 2351,
      "should": 2352,
      "paint": 2353,
      "rass": 2354,
      "rot": 2355,
      "former": 2356,
      "missed": 2357,
      "doctor": 2358,
      "biz": 2359,
      "suspect": 2360,
      "ain": 2361,
      "mes": 2362,
      "manages": 2363,
      "ging": 2364,
      "esome": 2365,
      "attempts": 2366,
      "repe": 2367,
      "rote": 2368,
      "embarrass": 2369,
      "pan": 2370,
      "sli": 2371,
      "gover": 2372,
      "recently": 2373,
      "fascin": 2374,
      "wel": 2375,
      "active": 2376,
      "scream": 2377,
      "ko": 2378,
      "itty": 2379,
      "pace": 2380,
      "amount": 2381,
      "chem": 2382,
      "ceiv": 2383,
      "dete": 2384,
      "spoilers": 2385,
      "sand": 2386,
      "table": 2387,
      "trip": 2388,
      "reveal": 2389,
      "danger": 2390,
      "west": 2391,
      "recor": 2392,
      "ival": 2393,
      "died": 2394,
      "dad": 2395,
      "explain": 2396,
      "sadly": 2397,
      "san": 2398,
      "wed": 2399,
      "office": 2400,
      "itted": 2401,
      "sky": 2402,
      "following": 2403,
      "ded": 2404,
      "ient": 2405,
      "rey": 2406,
      "reach": 2407,
      "created": 2408,
      "delight": 2409,
      "istry": 2410,
      "bon": 2411,
      "while": 2412,
      "accident": 2413,
      "impressive": 2414,
      "incredible": 2415,
      "thur": 2416,
      "actions": 2417,
      "lid": 2418,
      "accur": 2419,
      "produced": 2420,
      "wasted": 2421,
      "brief": 2422,
      "ots": 2423,
      "bility": 2424,
      "glo": 2425,
      "pull": 2426,
      "intri": 2427,
      "subtle": 2428,
      "caught": 2429,
      "eli": 2430,
      "vant": 2431,
      "crimin": 2432,
      "successful": 2433,
      "intelligent": 2434,
      "shad": 2435,
      "horri": 2436,
      "sees": 2437,
      "glad": 2438,
      "ely": 2439,
      "fash": 2440,
      "faith": 2441,
      "visual": 2442,
      "escape": 2443,
      "ius": 2444,
      "witch": 2445,
      "store": 2446,
      "approach": 2447,
      "han": 2448,
      "immedi": 2449,
      "comput": 2450,
      "national": 2451,
      "insp": 2452,
      "complex": 2453,
      "attack": 2454,
      "expla": 2455,
      "waiting": 2456,
      "drop": 2457,
      "bru": 2458,
      "europe": 2459,
      "chann": 2460,
      "rish": 2461,
      "disturb": 2462,
      "decides": 2463,
      "smi": 2464,
      "state": 2465,
      "moves": 2466,
      "considering": 2467,
      "bol": 2468,
      "arre": 2469,
      "party": 2470,
      "haun": 2471,
      "credit": 2472,
      "tension": 2473,
      "wrote": 2474,
      "uss": 2475,
      "planet": 2476,
      "tear": 2477,
      "amusing": 2478,
      "exciting": 2479,
      "dancing": 2480,
      "magic": 2481,
      "revenge": 2482,
      "thes": 2483,
      "aster": 2484,
      "victor": 2485,
      "slightly": 2486,
      "smo": 2487,
      "spent": 2488,
      "pointless": 2489,
      "control": 2490,
      "gent": 2491,
      "contri": 2492,
      "breat": 2493,
      "oph": 2494,
      "neither": 2495,
      "funni": 2496,
      "compared": 2497,
      "suddenly": 2498,
      "disgu": 2499,
      "ordin": 2500,
      "chase": 2501,
      "books": 2502,
      "sport": 2503,
      "entirely": 2504,
      "tough": 2505,
      "ran": 2506,
      "search": 2507,
      "solid": 2508,
      "choice": 2509,
      "audiences": 2510,
      "chan": 2511,
      "zombies": 2512,
      "trouble": 2513,
      "laughing": 2514,
      "italian": 2515,
      "mou": 2516,
      "allen": 2517,
      "bling": 2518,
      "manner": 2519,
      "door": 2520,
      "language": 2521,
      "bizarre": 2522,
      "pack": 2523,
      "basic": 2524,
      "animated": 2525,
      "violent": 2526,
      "ai": 2527,
      "olf": 2528,
      "german": 2529,
      "sis": 2530,
      "stew": 2531,
      "ultimately": 2532,
      "stan": 2533,
      "itation": 2534,
      "tort": 2535,
      "deci": 2536,
      "pieces": 2537,
      "value": 2538,
      "presented": 2539,
      "arri": 2540,
      "andre": 2541,
      "heavy": 2542,
      "gory": 2543,
      "chur": 2544,
      "psych": 2545,
      "carri": 2546,
      "genu": 2547,
      "singing": 2548,
      "biggest": 2549,
      "depend": 2550,
      "continu": 2551,
      "hang": 2552,
      "ites": 2553,
      "izing": 2554,
      "woods": 2555,
      "focus": 2556,
      "ensive": 2557,
      "tone": 2558,
      "adult": 2559,
      "extra": 2560,
      "lam": 2561,
      "depth": 2562,
      "requ": 2563,
      "spend": 2564,
      "adventure": 2565,
      "fashion": 2566,
      "ises": 2567,
      "terror": 2568,
      "ible": 2569,
      "century": 2570,
      "worthy": 2571,
      "hid": 2572,
      "spl": 2573,
      "brut": 2574,
      "portrayal": 2575,
      "appreciate": 2576,
      "genuine": 2577,
      "maker": 2578,
      "wall": 2579,
      "opport": 2580,
      "pract": 2581,
      "brow": 2582,
      "hey": 2583,
      "answer": 2584,
      "producers": 2585,
      "culture": 2586,
      "aside": 2587,
      "def": 2588,
      "awesome": 2589,
      "changed": 2590,
      "fal": 2591,
      "squ": 2592,
      "proper": 2593,
      "younger": 2594,
      "critic": 2595,
      "taste": 2596,
      "bomb": 2597,
      "rend": 2598,
      "born": 2599,
      "cious": 2600,
      "appearance": 2601,
      "alex": 2602,
      "follows": 2603,
      "favour": 2604,
      "alien": 2605,
      "afr": 2606,
      "sens": 2607,
      "motion": 2608,
      "legend": 2609,
      "oth": 2610,
      "south": 2611,
      "milit": 2612,
      "nic": 2613,
      "impossible": 2614,
      "club": 2615,
      "carry": 2616,
      "werent": 2617,
      "date": 2618,
      "grade": 2619,
      "assu": 2620,
      "depress": 2621,
      "ku": 2622,
      "lik": 2623,
      "pictures": 2624,
      "govern": 2625,
      "chemistry": 2626,
      "remark": 2627,
      "shi": 2628,
      "charming": 2629,
      "conclusion": 2630,
      "hall": 2631,
      "thanks": 2632,
      "showed": 2633,
      "anna": 2634,
      "recommended": 2635,
      "studio": 2636,
      "rema": 2637,
      "exception": 2638,
      "college": 2639,
      "considered": 2640,
      "amate": 2641,
      "starring": 2642,
      "situations": 2643,
      "minor": 2644,
      "runs": 2645,
      "slasher": 2646,
      "ener": 2647,
      "arts": 2648,
      "grad": 2649,
      "involving": 2650,
      "disturbing": 2651,
      "domin": 2652,
      "failed": 2653,
      "surprisingly": 2654,
      "barely": 2655,
      "leaving": 2656,
      "decide": 2657,
      "somewhere": 2658,
      "purpose": 2659,
      "bage": 2660,
      "nu": 2661,
      "rick": 2662,
      "remo": 2663,
      "ilt": 2664,
      "craft": 2665,
      "normal": 2666,
      "gas": 2667,
      "oli": 2668,
      "angel": 2669,
      "added": 2670,
      "mont": 2671,
      "ald": 2672,
      "iss": 2673,
      "fox": 2674,
      "longer": 2675,
      "soul": 2676,
      "smith": 2677,
      "ened": 2678,
      "obsess": 2679,
      "questions": 2680,
      "computer": 2681,
      "likes": 2682,
      "consist": 2683,
      "loud": 2684,
      "affect": 2685,
      "shooting": 2686,
      "dick": 2687,
      "jen": 2688,
      "pil": 2689,
      "mood": 2690,
      "ican": 2691,
      "dir": 2692,
      "neigh": 2693,
      "addition": 2694,
      "stem": 2695,
      "ets": 2696,
      "fake": 2697,
      "turning": 2698,
      "pse": 2699,
      "via": 2700,
      "ague": 2701,
      "images": 2702,
      "inspired": 2703,
      "boss": 2704,
      "appeared": 2705,
      "counter": 2706,
      "drive": 2707,
      "beha": 2708,
      "fell": 2709,
      "lond": 2710,
      "this": 2711,
      "spot": 2712,
      "harry": 2713,
      "values": 2714,
      "tony": 2715,
      "generally": 2716,
      "stunning": 2717,
      "breath": 2718,
      "steve": 2719,
      "load": 2720,
      "rog": 2721,
      "prove": 2722,
      "award": 2723,
      "curi": 2724,
      "qui": 2725,
      "formation": 2726,
      "literally": 2727,
      "lished": 2728,
      "tun": 2729,
      "anth": 2730,
      "alive": 2731,
      "iced": 2732,
      "ctions": 2733,
      "aper": 2734,
      "immediately": 2735,
      "apo": 2736,
      "mysterious": 2737,
      "dom": 2738,
      "gem": 2739,
      "matt": 2740,
      "walking": 2741,
      "humour": 2742,
      "yeah": 2743,
      "belief": 2744,
      "correct": 2745,
      "train": 2746,
      "likable": 2747,
      "bought": 2748,
      "fle": 2749,
      "iff": 2750,
      "nast": 2751,
      "stone": 2752,
      "rip": 2753,
      "grant": 2754,
      "justice": 2755,
      "cab": 2756,
      "mental": 2757,
      "garbage": 2758,
      "impression": 2759,
      "grace": 2760,
      "redeem": 2761,
      "random": 2762,
      "cell": 2763,
      "seg": 2764,
      "standard": 2765,
      "christian": 2766,
      "developed": 2767,
      "honestly": 2768,
      "innocent": 2769,
      "kno": 2770,
      "knowing": 2771,
      "utterly": 2772,
      "adaptation": 2773,
      "investig": 2774,
      "wow": 2775,
      "moon": 2776,
      "military": 2777,
      "nal": 2778,
      "tend": 2779,
      "insul": 2780,
      "ivers": 2781,
      "pair": 2782,
      "notice": 2783,
      "tradition": 2784,
      "million": 2785,
      "detective": 2786,
      "author": 2787,
      "genius": 2788,
      "channel": 2789,
      "cam": 2790,
      "cross": 2791,
      "pes": 2792,
      "ugs": 2793,
      "oned": 2794,
      "army": 2795,
      "bled": 2796,
      "succeed": 2797,
      "bond": 2798,
      "init": 2799,
      "edge": 2800,
      "moral": 2801,
      "ceived": 2802,
      "sitting": 2803,
      "serial": 2804,
      "ization": 2805,
      "juli": 2806,
      "melo": 2807,
      "sexy": 2808,
      "dor": 2809,
      "threat": 2810,
      "jeff": 2811,
      "reli": 2812,
      "loves": 2813,
      "absur": 2814,
      "personally": 2815,
      "journey": 2816,
      "bottom": 2817,
      "ters": 2818,
      "raid": 2819,
      "laught": 2820,
      "mission": 2821,
      "hs": 2822,
      "kin": 2823,
      "ride": 2824,
      "avail": 2825,
      "intrigu": 2826,
      "naked": 2827,
      "chris": 2828,
      "intent": 2829,
      "smart": 2830,
      "depict": 2831,
      "nowhere": 2832,
      "silent": 2833,
      "dreams": 2834,
      "occur": 2835,
      "ordinary": 2836,
      "bour": 2837,
      "london": 2838,
      "gag": 2839,
      "comedies": 2840,
      "drawn": 2841,
      "ella": 2842,
      "climax": 2843,
      "remains": 2844,
      "iron": 2845,
      "ples": 2846,
      "thinks": 2847,
      "places": 2848,
      "inspir": 2849,
      "unbelievable": 2850,
      "steal": 2851,
      "beautifully": 2852,
      "names": 2853,
      "touching": 2854,
      "terrific": 2855,
      "unt": 2856,
      "twists": 2857,
      "issues": 2858,
      "moun": 2859,
      "enter": 2860,
      "erson": 2861,
      "terms": 2862,
      "witness": 2863,
      "sight": 2864,
      "cher": 2865,
      "ula": 2866,
      "opher": 2867,
      "ief": 2868,
      "equally": 2869,
      "soldiers": 2870,
      "tem": 2871,
      "shop": 2872,
      "blue": 2873,
      "passion": 2874,
      "kelly": 2875,
      "onto": 2876,
      "system": 2877,
      "surely": 2878,
      "ban": 2879,
      "ka": 2880,
      "mill": 2881,
      "anda": 2882,
      "syn": 2883,
      "clean": 2884,
      "fellow": 2885,
      "mistake": 2886,
      "flashback": 2887,
      "jes": 2888,
      "managed": 2889,
      "church": 2890,
      "chick": 2891,
      "sey": 2892,
      "confli": 2893,
      "mild": 2894,
      "nick": 2895,
      "noir": 2896,
      "narrative": 2897,
      "gin": 2898,
      "lovely": 2899,
      "laughable": 2900,
      "themes": 2901,
      "nobody": 2902,
      "appy": 2903,
      "flow": 2904,
      "length": 2905,
      "nie": 2906,
      "uc": 2907,
      "accomp": 2908,
      "fright": 2909,
      "hat": 2910,
      "mm": 2911,
      "cele": 2912,
      "likely": 2913,
      "plane": 2914,
      "core": 2915,
      "jean": 2916,
      "batman": 2917,
      "len": 2918,
      "chel": 2919,
      "vey": 2920,
      "outstanding": 2921,
      "disappointing": 2922,
      "russi": 2923,
      "lay": 2924,
      "nomin": 2925,
      "fish": 2926,
      "cliche": 2927,
      "appropri": 2928,
      "attractive": 2929,
      "absurd": 2930,
      "alter": 2931,
      "verse": 2932,
      "position": 2933,
      "excuse": 2934,
      "painful": 2935,
      "evid": 2936,
      "sig": 2937,
      "ades": 2938,
      "vert": 2939,
      "constantly": 2940,
      "affair": 2941,
      "costumes": 2942,
      "bath": 2943,
      "jones": 2944,
      "und": 2945,
      "watchable": 2946,
      "central": 2947,
      "animals": 2948,
      "cinematic": 2949,
      "mult": 2950,
      "ette": 2951,
      "charm": 2952,
      "gry": 2953,
      "commun": 2954,
      "spoiler": 2955,
      "marriage": 2956,
      "enced": 2957,
      "vidu": 2958,
      "views": 2959,
      "individu": 2960,
      "changes": 2961,
      "stewart": 2962,
      "government": 2963,
      "held": 2964,
      "influ": 2965,
      "producer": 2966,
      "presence": 2967,
      "slowly": 2968,
      "indian": 2969,
      "destroy": 2970,
      "contains": 2971,
      "vampire": 2972,
      "skip": 2973,
      "christopher": 2974,
      "thrown": 2975,
      "besides": 2976,
      "available": 2977,
      "bow": 2978,
      "makeup": 2979,
      "youd": 2980,
      "medio": 2981,
      "critics": 2982,
      "historical": 2983,
      "mouth": 2984,
      "jan": 2985,
      "remain": 2986,
      "theless": 2987,
      "lock": 2988,
      "traged": 2989,
      "rain": 2990,
      "difference": 2991,
      "program": 2992,
      "charles": 2993,
      "details": 2994,
      "shadow": 2995,
      "had": 2996,
      "dig": 2997,
      "anti": 2998,
      "prote": 2999,
      "soft": 3000,
      "hoping": 3001,
      "henry": 3002,
      "photography": 3003,
      "bum": 3004,
      "brid": 3005,
      "independ": 3006,
      "sting": 3007,
      "comfort": 3008,
      "oughly": 3009,
      "disappointment": 3010,
      "lum": 3011,
      "stin": 3012,
      "intended": 3013,
      "scenery": 3014,
      "travel": 3015,
      "billy": 3016,
      "commer": 3017,
      "expectations": 3018,
      "achiev": 3019,
      "bing": 3020,
      "ific": 3021,
      "ases": 3022,
      "drug": 3023,
      "hip": 3024,
      "dum": 3025,
      "pun": 3026,
      "univers": 3027,
      "izes": 3028,
      "subst": 3029,
      "building": 3030,
      "ahead": 3031,
      "stands": 3032,
      "buff": 3033,
      "wis": 3034,
      "loose": 3035,
      "imagin": 3036,
      "victims": 3037,
      "dated": 3038,
      "ores": 3039,
      "seven": 3040,
      "span": 3041,
      "wide": 3042,
      "fool": 3043,
      "suppose": 3044,
      "market": 3045,
      "festival": 3046,
      "zen": 3047,
      "trick": 3048,
      "current": 3049,
      "fascinating": 3050,
      "nons": 3051,
      "cock": 3052,
      "block": 3053,
      "photograp": 3054,
      "aspects": 3055,
      "zero": 3056,
      "inner": 3057,
      "onel": 3058,
      "prop": 3059,
      "feelings": 3060,
      "queen": 3061,
      "speaking": 3062,
      "forever": 3063,
      "filming": 3064,
      "intense": 3065,
      "hosp": 3066,
      "lighting": 3067,
      "creative": 3068,
      "willing": 3069,
      "los": 3070,
      "mainly": 3071,
      "element": 3072,
      "opportunity": 3073,
      "surround": 3074,
      "compelling": 3075,
      "ledge": 3076,
      "prot": 3077,
      "aid": 3078,
      "distr": 3079,
      "plots": 3080,
      "summer": 3081,
      "lord": 3082,
      "nan": 3083,
      "wy": 3084,
      "wid": 3085,
      "stom": 3086,
      "boyfriend": 3087,
      "shakes": 3088,
      "aa": 3089,
      "gorge": 3090,
      "lived": 3091,
      "lover": 3092,
      "charlie": 3093,
      "resem": 3094,
      "emotions": 3095,
      "celebr": 3096,
      "there": 3097,
      "conflict": 3098,
      "icide": 3099,
      "trag": 3100,
      "opera": 3101,
      "phone": 3102,
      "twice": 3103,
      "quiet": 3104,
      "eat": 3105,
      "mut": 3106,
      "placed": 3107,
      "hotel": 3108,
      "alan": 3109,
      "intention": 3110,
      "norm": 3111,
      "protagon": 3112,
      "amed": 3113,
      "provi": 3114,
      "proves": 3115,
      "park": 3116,
      "happening": 3117,
      "birth": 3118,
      "bright": 3119,
      "games": 3120,
      "jon": 3121,
      "nat": 3122,
      "tired": 3123,
      "dim": 3124,
      "inder": 3125,
      "dubb": 3126,
      "puts": 3127,
      "falling": 3128,
      "vor": 3129,
      "double": 3130,
      "impact": 3131,
      "virt": 3132,
      "gor": 3133,
      "argu": 3134,
      "hide": 3135,
      "holes": 3136,
      "titles": 3137,
      "canad": 3138,
      "jerry": 3139,
      "overs": 3140,
      "trust": 3141,
      "lacks": 3142,
      "struct": 3143,
      "confused": 3144,
      "mex": 3145,
      "thom": 3146,
      "image": 3147,
      "hurt": 3148,
      "aim": 3149,
      "everybody": 3150,
      "desc": 3151,
      "priv": 3152,
      "bland": 3153,
      "content": 3154,
      "americans": 3155,
      "giant": 3156,
      "student": 3157,
      "trailer": 3158,
      "ners": 3159,
      "adults": 3160,
      "include": 3161,
      "numbers": 3162,
      "page": 3163,
      "sant": 3164,
      "uous": 3165,
      "itude": 3166,
      "race": 3167,
      "lessly": 3168,
      "paid": 3169,
      "students": 3170,
      "professional": 3171,
      "bruce": 3172,
      "behavi": 3173,
      "hasnt": 3174,
      "ils": 3175,
      "grat": 3176,
      "eight": 3177,
      "steven": 3178,
      "arthur": 3179,
      "followed": 3180,
      "winning": 3181,
      "entially": 3182,
      "scare": 3183,
      "cliches": 3184,
      "confusing": 3185,
      "gal": 3186,
      "share": 3187,
      "asks": 3188,
      "feat": 3189,
      "bits": 3190,
      "putting": 3191,
      "deter": 3192,
      "damn": 3193,
      "devil": 3194,
      "ech": 3195,
      "zo": 3196,
      "dish": 3197,
      "brand": 3198,
      "murders": 3199,
      "actresses": 3200,
      "decis": 3201,
      "dread": 3202,
      "lying": 3203,
      "clar": 3204,
      "news": 3205,
      "blind": 3206,
      "laughed": 3207,
      "faces": 3208,
      "negative": 3209,
      "gorgeous": 3210,
      "porn": 3211,
      "stood": 3212,
      "pleasant": 3213,
      "cum": 3214,
      "nes": 3215,
      "mom": 3216,
      "proved": 3217,
      "lights": 3218,
      "visit": 3219,
      "gon": 3220,
      "nel": 3221,
      "flicks": 3222,
      "relationships": 3223,
      "va": 3224,
      "thir": 3225,
      "tran": 3226,
      "brad": 3227,
      "gene": 3228,
      "supposedly": 3229,
      "impressed": 3230,
      "martin": 3231,
      "progress": 3232,
      "funniest": 3233,
      "mediocre": 3234,
      "dear": 3235,
      "hospital": 3236,
      "mine": 3237,
      "rac": 3238,
      "occasion": 3239,
      "pra": 3240,
      "frustr": 3241,
      "flaws": 3242,
      "dollar": 3243,
      "tragedy": 3244,
      "cus": 3245,
      "zan": 3246,
      "estab": 3247,
      "ints": 3248,
      "awk": 3249,
      "childhood": 3250,
      "rape": 3251,
      "ugly": 3252,
      "laughter": 3253,
      "bak": 3254,
      "mini": 3255,
      "merely": 3256,
      "wondering": 3257,
      "helps": 3258,
      "ee": 3259,
      "agent": 3260,
      "host": 3261,
      "finding": 3262,
      "offers": 3263,
      "cup": 3264,
      "hook": 3265,
      "flying": 3266,
      "slo": 3267,
      "lif": 3268,
      "imagination": 3269,
      "collection": 3270,
      "explained": 3271,
      "bank": 3272,
      "mers": 3273,
      "vs": 3274,
      "itions": 3275,
      "lose": 3276,
      "rose": 3277,
      "breaking": 3278,
      "delivers": 3279,
      "latter": 3280,
      "nasty": 3281,
      "fath": 3282,
      "ja": 3283,
      "viet": 3284,
      "shel": 3285,
      "cking": 3286,
      "irrit": 3287,
      "forgotten": 3288,
      "speed": 3289,
      "vari": 3290,
      "sympath": 3291,
      "tragic": 3292,
      "bles": 3293,
      "fing": 3294,
      "becoming": 3295,
      "artist": 3296,
      "standards": 3297,
      "regular": 3298,
      "pin": 3299,
      "states": 3300,
      "mac": 3301,
      "ively": 3302,
      "civil": 3303,
      "court": 3304,
      "stuck": 3305,
      "formula": 3306,
      "remote": 3307,
      "zed": 3308,
      "loving": 3309,
      "austr": 3310,
      "warm": 3311,
      "afraid": 3312,
      "williams": 3313,
      "gree": 3314,
      "cook": 3315,
      "aware": 3316,
      "seconds": 3317,
      "spectac": 3318,
      "thoroughly": 3319,
      "shakespe": 3320,
      "provides": 3321,
      "een": 3322,
      "fur": 3323,
      "fles": 3324,
      "sid": 3325,
      "powers": 3326,
      "dressed": 3327,
      "sab": 3328,
      "information": 3329,
      "station": 3330,
      "ato": 3331,
      "outs": 3332,
      "when": 3333,
      "forgettable": 3334,
      "ison": 3335,
      "seemingly": 3336,
      "object": 3337,
      "warning": 3338,
      "reminded": 3339,
      "hab": 3340,
      "hack": 3341,
      "mare": 3342,
      "folks": 3343,
      "accurate": 3344,
      "filmmaker": 3345,
      "agger": 3346,
      "industr": 3347,
      "card": 3348,
      "arm": 3349,
      "ura": 3350,
      "stock": 3351,
      "adam": 3352,
      "apes": 3353,
      "spin": 3354,
      "rescu": 3355,
      "listen": 3356,
      "industry": 3357,
      "cel": 3358,
      "uit": 3359,
      "arily": 3360,
      "chines": 3361,
      "acad": 3362,
      "comman": 3363,
      "convent": 3364,
      "artistic": 3365,
      "food": 3366,
      "contem": 3367,
      "captain": 3368,
      "animal": 3369,
      "shocking": 3370,
      "eness": 3371,
      "presents": 3372,
      "heroes": 3373,
      "location": 3374,
      "shouldnt": 3375,
      "hidden": 3376,
      "remarkable": 3377,
      "castle": 3378,
      "wars": 3379,
      "area": 3380,
      "relative": 3381,
      "rented": 3382,
      "apartment": 3383,
      "ties": 3384,
      "adds": 3385,
      "accor": 3386,
      "heal": 3387,
      "youth": 3388,
      "wooden": 3389,
      "personality": 3390,
      "brian": 3391,
      "extr": 3392,
      "weap": 3393,
      "heads": 3394,
      "davis": 3395,
      "deserved": 3396,
      "dirty": 3397,
      "angry": 3398,
      "icking": 3399,
      "explan": 3400,
      "theref": 3401,
      "prefer": 3402,
      "clothes": 3403,
      "creature": 3404,
      "soldier": 3405,
      "mate": 3406,
      "punch": 3407,
      "sir": 3408,
      "asure": 3409,
      "process": 3410,
      "werew": 3411,
      "heaven": 3412,
      "therefore": 3413,
      "jason": 3414,
      "mic": 3415,
      "ich": 3416,
      "provid": 3417,
      "anymore": 3418,
      "olds": 3419,
      "picked": 3420,
      "rul": 3421,
      "ya": 3422,
      "ency": 3423,
      "mob": 3424,
      "unexpected": 3425,
      "depart": 3426,
      "soever": 3427,
      "auth": 3428,
      "chinese": 3429,
      "describe": 3430,
      "sac": 3431,
      "wing": 3432,
      "danny": 3433,
      "glas": 3434,
      "teenage": 3435,
      "martial": 3436,
      "finished": 3437,
      "favourite": 3438,
      "cate": 3439,
      "rors": 3440,
      "possess": 3441,
      "azz": 3442,
      "whatsoever": 3443,
      "stro": 3444,
      "strength": 3445,
      "rubb": 3446,
      "motiv": 3447,
      "elect": 3448,
      "intelligence": 3449,
      "struggle": 3450,
      "machine": 3451,
      "redeeming": 3452,
      "tay": 3453,
      "moved": 3454,
      "horse": 3455,
      "barbar": 3456,
      "superior": 3457,
      "allowed": 3458,
      "window": 3459,
      "hitch": 3460,
      "aries": 3461,
      "engaging": 3462,
      "humans": 3463,
      "guns": 3464,
      "stephen": 3465,
      "compare": 3466,
      "criminal": 3467,
      "east": 3468,
      "uts": 3469,
      "heres": 3470,
      "pretent": 3471,
      "helped": 3472,
      "wearing": 3473,
      "desperate": 3474,
      "scientist": 3475,
      "chap": 3476,
      "lake": 3477,
      "wonderfully": 3478,
      "bby": 3479,
      "hund": 3480,
      "techno": 3481,
      "repeated": 3482,
      "fab": 3483,
      "native": 3484,
      "yer": 3485,
      "filmmaking": 3486,
      "realized": 3487,
      "insight": 3488,
      "skin": 3489,
      "bid": 3490,
      "ilo": 3491,
      "deman": 3492,
      "convers": 3493,
      "jose": 3494,
      "drugs": 3495,
      "wards": 3496,
      "includes": 3497,
      "deeply": 3498,
      "fits": 3499,
      "lift": 3500,
      "uncle": 3501,
      "comparis": 3502,
      "realism": 3503,
      "disaster": 3504,
      "brook": 3505,
      "fights": 3506,
      "radio": 3507,
      "theatre": 3508,
      "tears": 3509,
      "dow": 3510,
      "loss": 3511,
      "commentary": 3512,
      "oppos": 3513,
      "ups": 3514,
      "resear": 3515,
      "buck": 3516,
      "invent": 3517,
      "began": 3518,
      "austral": 3519,
      "pretentious": 3520,
      "cable": 3521,
      "cgi": 3522,
      "tick": 3523,
      "uk": 3524,
      "limited": 3525,
      "technical": 3526,
      "bound": 3527,
      "nightmare": 3528,
      "washing": 3529,
      "religious": 3530,
      "eg": 3531,
      "tro": 3532,
      "orious": 3533,
      "ays": 3534,
      "nia": 3535,
      "gret": 3536,
      "revolution": 3537,
      "physical": 3538,
      "energy": 3539,
      "mountain": 3540,
      "dying": 3541,
      "ston": 3542,
      "atter": 3543,
      "fill": 3544,
      "suff": 3545,
      "soap": 3546,
      "epic": 3547,
      "friendship": 3548,
      "cops": 3549,
      "rarely": 3550,
      "gam": 3551,
      "text": 3552,
      "illa": 3553,
      "comedic": 3554,
      "captur": 3555,
      "graphic": 3556,
      "cali": 3557,
      "introduced": 3558,
      "brutal": 3559,
      "fet": 3560,
      "fare": 3561,
      "johnny": 3562,
      "holds": 3563,
      "capture": 3564,
      "independent": 3565,
      "sour": 3566,
      "aton": 3567,
      "leon": 3568,
      "chuck": 3569,
      "appropriate": 3570,
      "river": 3571,
      "slap": 3572,
      "responsible": 3573,
      "gary": 3574,
      "naz": 3575,
      "educ": 3576,
      "lovers": 3577,
      "unusual": 3578,
      "wee": 3579,
      "awn": 3580,
      "magnific": 3581,
      "todays": 3582,
      "jump": 3583,
      "issue": 3584,
      "teacher": 3585,
      "unnecessary": 3586,
      "debut": 3587,
      "suicide": 3588,
      "cond": 3589,
      "pleasure": 3590,
      "cil": 3591,
      "za": 3592,
      "with": 3593,
      "blon": 3594,
      "douglas": 3595,
      "ify": 3596,
      "normally": 3597,
      "pit": 3598,
      "joan": 3599,
      "coher": 3600,
      "resol": 3601,
      "continue": 3602,
      "contrast": 3603,
      "dun": 3604,
      "tol": 3605,
      "desire": 3606,
      "perspect": 3607,
      "stein": 3608,
      "england": 3609,
      "twenty": 3610,
      "sentiment": 3611,
      "andrew": 3612,
      "jr": 3613,
      "lind": 3614,
      "tie": 3615,
      "erous": 3616,
      "returns": 3617,
      "ett": 3618,
      "asing": 3619,
      "suck": 3620,
      "scared": 3621,
      "provide": 3622,
      "boat": 3623,
      "player": 3624,
      "knowledge": 3625,
      "kidn": 3626,
      "freak": 3627,
      "wedding": 3628,
      "rous": 3629,
      "vac": 3630,
      "aint": 3631,
      "bell": 3632,
      "bian": 3633,
      "rat": 3634,
      "vul": 3635,
      "oud": 3636,
      "compla": 3637,
      "serv": 3638,
      "interpret": 3639,
      "bloody": 3640,
      "stret": 3641,
      "experiment": 3642,
      "signific": 3643,
      "tight": 3644,
      "lis": 3645,
      "asked": 3646,
      "vehic": 3647,
      "partner": 3648,
      "capable": 3649,
      "hundred": 3650,
      "nin": 3651,
      "igno": 3652,
      "dry": 3653,
      "anywhere": 3654,
      "killers": 3655,
      "memory": 3656,
      "cuts": 3657,
      "constant": 3658,
      "record": 3659,
      "ied": 3660,
      "media": 3661,
      "stream": 3662,
      "intriguing": 3663,
      "russian": 3664,
      "kev": 3665,
      "itor": 3666,
      "ousand": 3667,
      "monsters": 3668,
      "leader": 3669,
      "creating": 3670,
      "nicely": 3671,
      "north": 3672,
      "virgin": 3673,
      "eper": 3674,
      "rical": 3675,
      "tons": 3676,
      "reed": 3677,
      "advert": 3678,
      "wanting": 3679,
      "ladies": 3680,
      "growing": 3681,
      "paced": 3682,
      "pilot": 3683,
      "fate": 3684,
      "hated": 3685,
      "ira": 3686,
      "matth": 3687,
      "understanding": 3688,
      "reminds": 3689,
      "pacing": 3690,
      "torture": 3691,
      "pping": 3692,
      "thousand": 3693,
      "separ": 3694,
      "charis": 3695,
      "drunk": 3696,
      "chore": 3697,
      "complic": 3698,
      "humanity": 3699,
      "lynch": 3700,
      "according": 3701,
      "gard": 3702,
      "jay": 3703,
      "chop": 3704,
      "phy": 3705,
      "noticed": 3706,
      "rise": 3707,
      "broken": 3708,
      "lucky": 3709,
      "academy": 3710,
      "pup": 3711,
      "aband": 3712,
      "anybody": 3713,
      "calls": 3714,
      "villains": 3715,
      "awkward": 3716,
      "hay": 3717,
      "lon": 3718,
      "rout": 3719,
      "atro": 3720,
      "ried": 3721,
      "shir": 3722,
      "abs": 3723,
      "ousy": 3724,
      "forces": 3725,
      "acqu": 3726,
      "angle": 3727,
      "smile": 3728,
      "kate": 3729,
      "itz": 3730,
      "players": 3731,
      "superman": 3732,
      "passed": 3733,
      "explanation": 3734,
      "bag": 3735,
      "eddie": 3736,
      "priest": 3737,
      "blame": 3738,
      "higher": 3739,
      "originally": 3740,
      "community": 3741,
      "matic": 3742,
      "freed": 3743,
      "intellect": 3744,
      "mixed": 3745,
      "discovered": 3746,
      "gro": 3747,
      "paper": 3748,
      "represent": 3749,
      "isters": 3750,
      "porter": 3751,
      "explic": 3752,
      "instance": 3753,
      "dangerous": 3754,
      "ax": 3755,
      "unknown": 3756,
      "product": 3757,
      "report": 3758,
      "visible": 3759,
      "confront": 3760,
      "cars": 3761,
      "deserve": 3762,
      "dut": 3763,
      "nation": 3764,
      "scr": 3765,
      "safe": 3766,
      "lowbudget": 3767,
      "belong": 3768,
      "techni": 3769,
      "spectacular": 3770,
      "model": 3771,
      "price": 3772,
      "somebody": 3773,
      "saving": 3774,
      "buster": 3775,
      "president": 3776,
      "toward": 3777,
      "neighbor": 3778,
      "kevin": 3779,
      "peace": 3780,
      "scious": 3781,
      "indu": 3782,
      "whil": 3783,
      "brave": 3784,
      "candy": 3785,
      "hart": 3786,
      "lit": 3787,
      "anci": 3788,
      "organ": 3789,
      "mature": 3790,
      "frequ": 3791,
      "jesus": 3792,
      "taylor": 3793,
      "cage": 3794,
      "inct": 3795,
      "spring": 3796,
      "weight": 3797,
      "starting": 3798,
      "corpor": 3799,
      "anned": 3800,
      "prince": 3801,
      "hadnt": 3802,
      "spanish": 3803,
      "tex": 3804,
      "owner": 3805,
      "frame": 3806,
      "keeping": 3807,
      "naturally": 3808,
      "sympathetic": 3809,
      "princi": 3810,
      "rubbish": 3811,
      "whilst": 3812,
      "cath": 3813,
      "iest": 3814,
      "jess": 3815,
      "union": 3816,
      "emer": 3817,
      "saur": 3818,
      "floor": 3819,
      "proceed": 3820,
      "saved": 3821,
      "lacking": 3822,
      "jackson": 3823,
      "satisfying": 3824,
      "european": 3825,
      "shallow": 3826,
      "sucks": 3827,
      "manage": 3828,
      "finest": 3829,
      "heroine": 3830,
      "memories": 3831,
      "pir": 3832,
      "ena": 3833,
      "ching": 3834,
      "fif": 3835,
      "months": 3836,
      "hopes": 3837,
      "treated": 3838,
      "featuring": 3839,
      "jam": 3840,
      "lone": 3841,
      "enjo": 3842,
      "sea": 3843,
      "boo": 3844,
      "sie": 3845,
      "daniel": 3846,
      "explos": 3847,
      "golden": 3848,
      "tarzan": 3849,
      "hits": 3850,
      "vhs": 3851,
      "service": 3852,
      "marks": 3853,
      "hob": 3854,
      "results": 3855,
      "ished": 3856,
      "worlds": 3857,
      "kinda": 3858,
      "glass": 3859,
      "streets": 3860,
      "concerned": 3861,
      "von": 3862,
      "ators": 3863,
      "loses": 3864,
      "unfunny": 3865,
      "anton": 3866,
      "forts": 3867,
      "sole": 3868,
      "alleng": 3869,
      "fault": 3870,
      "marry": 3871,
      "empty": 3872,
      "burn": 3873,
      "reviewers": 3874,
      "terribly": 3875,
      "judge": 3876,
      "pulled": 3877,
      "officer": 3878,
      "delightful": 3879,
      "snow": 3880,
      "erotic": 3881,
      "mol": 3882,
      "insane": 3883,
      "chair": 3884,
      "kong": 3885,
      "ime": 3886,
      "wher": 3887,
      "peoples": 3888,
      "versions": 3889,
      "morning": 3890,
      "included": 3891,
      "werewolf": 3892,
      "aud": 3893,
      "rings": 3894,
      "witty": 3895,
      "assist": 3896,
      "marvel": 3897,
      "grown": 3898,
      "appealing": 3899,
      "screaming": 3900,
      "vance": 3901,
      "atory": 3902,
      "ico": 3903,
      "aka": 3904,
      "mike": 3905,
      "ipul": 3906,
      "corrupt": 3907,
      "related": 3908,
      "numerous": 3909,
      "behavior": 3910,
      "whenever": 3911,
      "lers": 3912,
      "satur": 3913,
      "reaction": 3914,
      "chief": 3915,
      "robb": 3916,
      "raw": 3917,
      "international": 3918,
      "weal": 3919,
      "context": 3920,
      "driving": 3921,
      "nonsense": 3922,
      "private": 3923,
      "anne": 3924,
      "urban": 3925,
      "expert": 3926,
      "akes": 3927,
      "kim": 3928,
      "skills": 3929,
      "edited": 3930,
      "chester": 3931,
      "bigger": 3932,
      "colum": 3933,
      "distri": 3934,
      "allows": 3935,
      "gentle": 3936,
      "traditional": 3937,
      "send": 3938,
      "weve": 3939,
      "manipul": 3940,
      "ander": 3941,
      "bob": 3942,
      "talents": 3943,
      "courage": 3944,
      "dealing": 3945,
      "captured": 3946,
      "psychological": 3947,
      "circum": 3948,
      "perspective": 3949,
      "iling": 3950,
      "liber": 3951,
      "cruel": 3952,
      "target": 3953,
      "ultimate": 3954,
      "philos": 3955,
      "fathers": 3956,
      "opposite": 3957,
      "blonde": 3958,
      "cit": 3959,
      "sisters": 3960,
      "incident": 3961,
      "expl": 3962,
      "minim": 3963,
      "singer": 3964,
      "humorous": 3965,
      "locations": 3966,
      "shakespeare": 3967,
      "challeng": 3968,
      "entic": 3969,
      "deals": 3970,
      "plant": 3971,
      "mum": 3972,
      "guard": 3973,
      "finale": 3974,
      "plaus": 3975,
      "jenni": 3976,
      "multi": 3977,
      "incre": 3978,
      "envi": 3979,
      "received": 3980,
      "thet": 3981,
      "chest": 3982,
      "associ": 3983,
      "essentially": 3984,
      "opens": 3985,
      "iser": 3986,
      "constru": 3987,
      "spell": 3988,
      "breaks": 3989,
      "curious": 3990,
      "lewis": 3991,
      "mented": 3992,
      "udes": 3993,
      "homo": 3994,
      "remembered": 3995,
      "continues": 3996,
      "connection": 3997,
      "brown": 3998,
      "gags": 3999,
      "berts": 4000,
      "morgan": 4001,
      "murdered": 4002,
      "satire": 4003,
      "foreign": 4004,
      "covered": 4005,
      "survive": 4006,
      "jimmy": 4007,
      "revealed": 4008,
      "comfortable": 4009,
      "commercial": 4010,
      "magnificent": 4011,
      "unf": 4012,
      "labor": 4013,
      "prepa": 4014,
      "sav": 4015,
      "viewed": 4016,
      "clim": 4017,
      "miles": 4018,
      "trek": 4019,
      "visually": 4020,
      "reflect": 4021,
      "dent": 4022,
      "pity": 4023,
      "anal": 4024,
      "ari": 4025,
      "formed": 4026,
      "cies": 4027,
      "mrs": 4028,
      "donald": 4029,
      "rang": 4030,
      "eric": 4031,
      "lion": 4032,
      "phant": 4033,
      "corny": 4034,
      "daughters": 4035,
      "existence": 4036,
      "veter": 4037,
      "kh": 4038,
      "albert": 4039,
      "advice": 4040,
      "united": 4041,
      "ivity": 4042,
      "creates": 4043,
      "discuss": 4044,
      "theyve": 4045,
      "identity": 4046,
      "frankly": 4047,
      "african": 4048,
      "anthony": 4049,
      "segment": 4050,
      "occasionally": 4051,
      "deb": 4052,
      "conscious": 4053,
      "lesson": 4054,
      "center": 4055,
      "miser": 4056,
      "learned": 4057,
      "promise": 4058,
      "vampires": 4059,
      "soph": 4060,
      "iled": 4061,
      "sean": 4062,
      "welles": 4063,
      "print": 4064,
      "cash": 4065,
      "efforts": 4066,
      "underrated": 4067,
      "cameo": 4068,
      "grew": 4069,
      "logic": 4070,
      "sleaz": 4071,
      "gangster": 4072,
      "circumst": 4073,
      "mitch": 4074,
      "sna": 4075,
      "wound": 4076,
      "regret": 4077,
      "sucked": 4078,
      "ender": 4079,
      "quir": 4080,
      "fix": 4081,
      "bringing": 4082,
      "washington": 4083,
      "bach": 4084,
      "kir": 4085,
      "code": 4086,
      "buddy": 4087,
      "drew": 4088,
      "rolling": 4089,
      "visuals": 4090,
      "thomas": 4091,
      "gig": 4092,
      "keaton": 4093,
      "uring": 4094,
      "sett": 4095,
      "luke": 4096,
      "gift": 4097,
      "village": 4098,
      "references": 4099,
      "genuinely": 4100,
      "stic": 4101,
      "disp": 4102,
      "desert": 4103,
      "study": 4104,
      "eating": 4105,
      "lied": 4106,
      "ries": 4107,
      "oted": 4108,
      "asts": 4109,
      "overly": 4110,
      "harris": 4111,
      "demonstr": 4112,
      "suffering": 4113,
      "haunting": 4114,
      "comparison": 4115,
      "freedom": 4116,
      "gross": 4117,
      "ambit": 4118,
      "bodies": 4119,
      "sake": 4120,
      "ensional": 4121,
      "simon": 4122,
      "built": 4123,
      "hallow": 4124,
      "meanwhile": 4125,
      "sheriff": 4126,
      "admir": 4127,
      "decade": 4128,
      "santa": 4129,
      "gord": 4130,
      "jew": 4131,
      "xious": 4132,
      "thod": 4133,
      "lem": 4134,
      "unable": 4135,
      "forms": 4136,
      "porary": 4137,
      "brilliantly": 4138,
      "types": 4139,
      "sheer": 4140,
      "cultur": 4141,
      "sharp": 4142,
      "jennifer": 4143,
      "parody": 4144,
      "failure": 4145,
      "stereotypes": 4146,
      "relief": 4147,
      "gratuit": 4148,
      "determin": 4149,
      "jar": 4150,
      "rant": 4151,
      "awards": 4152,
      "facts": 4153,
      "fairy": 4154,
      "promising": 4155,
      "statement": 4156,
      "amateur": 4157,
      "irritating": 4158,
      "environ": 4159,
      "ike": 4160,
      "sop": 4161,
      "zab": 4162,
      "indic": 4163,
      "apping": 4164,
      "sinat": 4165,
      "sports": 4166,
      "flashbacks": 4167,
      "decision": 4168,
      "joseph": 4169,
      "coherent": 4170,
      "glim": 4171,
      "kung": 4172,
      "pitch": 4173,
      "rep": 4174,
      "emma": 4175,
      "agers": 4176,
      "format": 4177,
      "drin": 4178,
      "crappy": 4179,
      "ruth": 4180,
      "anime": 4181,
      "discovers": 4182,
      "delivered": 4183,
      "rough": 4184,
      "tu": 4185,
      "vy": 4186,
      "reck": 4187,
      "anic": 4188,
      "seat": 4189,
      "ante": 4190,
      "colour": 4191,
      "compan": 4192,
      "sedu": 4193,
      "seasons": 4194,
      "emotionally": 4195,
      "broadway": 4196,
      "technology": 4197,
      "mend": 4198,
      "that": 4199,
      "secur": 4200,
      "goof": 4201,
      "usive": 4202,
      "heck": 4203,
      "louis": 4204,
      "blown": 4205,
      "amateu": 4206,
      "eer": 4207,
      "fro": 4208,
      "site": 4209,
      "encounter": 4210,
      "refresh": 4211,
      "stated": 4212,
      "guil": 4213,
      "corn": 4214,
      "lands": 4215,
      "generation": 4216,
      "painfully": 4217,
      "bourne": 4218,
      "sacri": 4219,
      "rix": 4220,
      "shine": 4221,
      "amor": 4222,
      "feet": 4223,
      "hunter": 4224,
      "hitler": 4225,
      "robin": 4226,
      "gain": 4227,
      "dreadful": 4228,
      "fy": 4229,
      "iac": 4230,
      "range": 4231,
      "asian": 4232,
      "qual": 4233,
      "guar": 4234,
      "factor": 4235,
      "naive": 4236,
      "patrick": 4237,
      "transl": 4238,
      "majority": 4239,
      "symbo": 4240,
      "families": 4241,
      "halloween": 4242,
      "bute": 4243,
      "cinder": 4244,
      "ez": 4245,
      "gil": 4246,
      "wick": 4247,
      "ros": 4248,
      "compre": 4249,
      "evening": 4250,
      "caused": 4251,
      "nevertheless": 4252,
      "attitude": 4253,
      "produce": 4254,
      "spoof": 4255,
      "entertained": 4256,
      "speech": 4257,
      "meeting": 4258,
      "etime": 4259,
      "popul": 4260,
      "switch": 4261,
      "individual": 4262,
      "math": 4263,
      "tap": 4264,
      "wan": 4265,
      "will": 4266,
      "recall": 4267,
      "handsome": 4268,
      "relate": 4269,
      "offensive": 4270,
      "hunt": 4271,
      "strip": 4272,
      "philip": 4273,
      "barbara": 4274,
      "vehicle": 4275,
      "gratuitous": 4276,
      "dino": 4277,
      "lud": 4278,
      "oz": 4279,
      "wins": 4280,
      "endless": 4281,
      "classics": 4282,
      "mates": 4283,
      "cliched": 4284,
      "hearing": 4285,
      "experienced": 4286,
      "annoy": 4287,
      "costs": 4288,
      "treatment": 4289,
      "religion": 4290,
      "rules": 4291,
      "authentic": 4292,
      "gab": 4293,
      "junk": 4294,
      "stol": 4295,
      "angles": 4296,
      "tedious": 4297,
      "expression": 4298,
      "practically": 4299,
      "research": 4300,
      "ified": 4301,
      "las": 4302,
      "mort": 4303,
      "tape": 4304,
      "zel": 4305,
      "evit": 4306,
      "eston": 4307,
      "whel": 4308,
      "excited": 4309,
      "walks": 4310,
      "reviewer": 4311,
      "theatrical": 4312,
      "adventures": 4313,
      "described": 4314,
      "ancient": 4315,
      "amateurish": 4316,
      "ec": 4317,
      "gate": 4318,
      "chol": 4319,
      "evol": 4320,
      "thern": 4321,
      "inept": 4322,
      "chosen": 4323,
      "silver": 4324,
      "theaters": 4325,
      "ini": 4326,
      "ars": 4327,
      "chi": 4328,
      "ador": 4329,
      "asking": 4330,
      "combination": 4331,
      "ado": 4332,
      "ops": 4333,
      "neck": 4334,
      "cia": 4335,
      "hoff": 4336,
      "howard": 4337,
      "understood": 4338,
      "graph": 4339,
      "ignor": 4340,
      "stopped": 4341,
      "exploitation": 4342,
      "levels": 4343,
      "extras": 4344,
      "irish": 4345,
      "ket": 4346,
      "pical": 4347,
      "skill": 4348,
      "tour": 4349,
      "inevit": 4350,
      "mann": 4351,
      "convey": 4352,
      "parker": 4353,
      "highlight": 4354,
      "excit": 4355,
      "harsh": 4356,
      "portrays": 4357,
      "executed": 4358,
      "assume": 4359,
      "rescue": 4360,
      "onic": 4361,
      "mod": 4362,
      "unrealistic": 4363,
      "compar": 4364,
      "gray": 4365,
      "wrest": 4366,
      "cares": 4367,
      "lesbian": 4368,
      "believes": 4369,
      "mask": 4370,
      "grave": 4371,
      "robot": 4372,
      "claims": 4373,
      "flesh": 4374,
      "gordon": 4375,
      "fame": 4376,
      "yl": 4377,
      "choose": 4378,
      "ruined": 4379,
      "handed": 4380,
      "sitcom": 4381,
      "focused": 4382,
      "contrived": 4383,
      "sword": 4384,
      "alle": 4385,
      "gues": 4386,
      "caine": 4387,
      "holi": 4388,
      "glen": 4389,
      "portraying": 4390,
      "learns": 4391,
      "largely": 4392,
      "embarrassing": 4393,
      "faithful": 4394,
      "depressing": 4395,
      "obsessed": 4396,
      "dubbed": 4397,
      "kins": 4398,
      "reput": 4399,
      "alco": 4400,
      "sem": 4401,
      "maid": 4402,
      "forth": 4403,
      "fornia": 4404,
      "misc": 4405,
      "commit": 4406,
      "sequels": 4407,
      "driven": 4408,
      "freddy": 4409,
      "competent": 4410,
      "intentionally": 4411,
      "descript": 4412,
      "ology": 4413,
      "ensu": 4414,
      "section": 4415,
      "losing": 4416,
      "beach": 4417,
      "lower": 4418,
      "clue": 4419,
      "assass": 4420,
      "germany": 4421,
      "involves": 4422,
      "winner": 4423,
      "football": 4424,
      "necessarily": 4425,
      "connect": 4426,
      "fictional": 4427,
      "welcome": 4428,
      "canadian": 4429,
      "din": 4430,
      "noon": 4431,
      "account": 4432,
      "teenagers": 4433,
      "crowd": 4434,
      "matters": 4435,
      "lil": 4436,
      "uma": 4437,
      "vote": 4438,
      "outr": 4439,
      "omen": 4440,
      "depi": 4441,
      "trilo": 4442,
      "prov": 4443,
      "prost": 4444,
      "pregn": 4445,
      "proud": 4446,
      "serves": 4447,
      "aust": 4448,
      "marie": 4449,
      "rights": 4450,
      "woody": 4451,
      "barry": 4452,
      "crash": 4453,
      "nominated": 4454,
      "propag": 4455,
      "aire": 4456,
      "olic": 4457,
      "enthus": 4458,
      "ption": 4459,
      "prior": 4460,
      "strongly": 4461,
      "convinced": 4462,
      "disgusting": 4463,
      "evidence": 4464,
      "excitement": 4465,
      "clau": 4466,
      "ole": 4467,
      "uel": 4468,
      "neat": 4469,
      "gress": 4470,
      "dogs": 4471,
      "france": 4472,
      "thoughts": 4473,
      "walter": 4474,
      "flor": 4475,
      "honor": 4476,
      "faced": 4477,
      "costume": 4478,
      "protagonist": 4479,
      "routine": 4480,
      "enthusi": 4481,
      "knight": 4482,
      "lousy": 4483,
      "pitt": 4484,
      "vague": 4485,
      "shell": 4486,
      "arded": 4487,
      "poses": 4488,
      "surreal": 4489,
      "talks": 4490,
      "nichol": 4491,
      "aret": 4492,
      "gged": 4493,
      "voices": 4494,
      "creatures": 4495,
      "teenager": 4496,
      "kat": 4497,
      "sno": 4498,
      "revel": 4499,
      "shut": 4500,
      "asle": 4501,
      "poster": 4502,
      "serve": 4503,
      "training": 4504,
      "relevant": 4505,
      "dynam": 4506,
      "employ": 4507,
      "hanging": 4508,
      "substance": 4509,
      "captures": 4510,
      "circumstances": 4511,
      "fed": 4512,
      "haw": 4513,
      "nav": 4514,
      "rab": 4515,
      "crack": 4516,
      "holding": 4517,
      "sexuality": 4518,
      "baseball": 4519,
      "haunted": 4520,
      "imaginative": 4521,
      "saturday": 4522,
      "hint": 4523,
      "scale": 4524,
      "forest": 4525,
      "preach": 4526,
      "hyster": 4527,
      "oliver": 4528,
      "trilogy": 4529,
      "bin": 4530,
      "nar": 4531,
      "nut": 4532,
      "till": 4533,
      "champ": 4534,
      "shall": 4535,
      "essential": 4536,
      "emph": 4537,
      "directly": 4538,
      "handled": 4539,
      "jackie": 4540,
      "false": 4541,
      "asleep": 4542,
      "jung": 4543,
      "lap": 4544,
      "nol": 4545,
      "ario": 4546,
      "otes": 4547,
      "powell": 4548,
      "pets": 4549,
      "involve": 4550,
      "hopefully": 4551,
      "weekend": 4552,
      "horribly": 4553,
      "virtually": 4554,
      "fra": 4555,
      "nis": 4556,
      "ov": 4557,
      "pig": 4558,
      "rece": 4559,
      "ada": 4560,
      "rival": 4561,
      "capital": 4562,
      "cutting": 4563,
      "insult": 4564,
      "initial": 4565,
      "relatively": 4566,
      "citiz": 4567,
      "jun": 4568,
      "pile": 4569,
      "arrest": 4570,
      "grab": 4571,
      "doom": 4572,
      "function": 4573,
      "steals": 4574,
      "rental": 4575,
      "cases": 4576,
      "swim": 4577,
      "appreciated": 4578,
      "unlikely": 4579,
      "continuity": 4580,
      "influence": 4581,
      "cinderella": 4582,
      "bun": 4583,
      "roberts": 4584,
      "poff": 4585,
      "beast": 4586,
      "oky": 4587,
      "ryan": 4588,
      "excess": 4589,
      "adding": 4590,
      "destru": 4591,
      "figured": 4592,
      "controvers": 4593,
      "nancy": 4594,
      "contemporary": 4595,
      "category": 4596,
      "dinosaur": 4597,
      "ludic": 4598,
      "mg": 4599,
      "sne": 4600,
      "seed": 4601,
      "shy": 4602,
      "guest": 4603,
      "friendly": 4604,
      "pier": 4605,
      "maintain": 4606,
      "shocked": 4607,
      "halfway": 4608,
      "pursu": 4609,
      "document": 4610,
      "lawyer": 4611,
      "depicted": 4612,
      "texas": 4613,
      "dal": 4614,
      "wolf": 4615,
      "sta": 4616,
      "height": 4617,
      "strang": 4618,
      "bugs": 4619,
      "bitter": 4620,
      "unfortunate": 4621,
      "russell": 4622,
      "cowboy": 4623,
      "africa": 4624,
      "multiple": 4625,
      "mam": 4626,
      "inher": 4627,
      "reporter": 4628,
      "teens": 4629,
      "clark": 4630,
      "aves": 4631,
      "michel": 4632,
      "deaths": 4633,
      "believed": 4634,
      "passing": 4635,
      "movement": 4636,
      "cartoons": 4637,
      "loyal": 4638,
      "columbo": 4639,
      "his": 4640,
      "tiny": 4641,
      "ern": 4642,
      "rebel": 4643,
      "arn": 4644,
      "bog": 4645,
      "method": 4646,
      "supernatural": 4647,
      "changing": 4648,
      "politics": 4649,
      "claimed": 4650,
      "provided": 4651,
      "weeks": 4652,
      "qualities": 4653,
      "egr": 4654,
      "kath": 4655,
      "sma": 4656,
      "ert": 4657,
      "rie": 4658,
      "risk": 4659,
      "aph": 4660,
      "oking": 4661,
      "wayne": 4662,
      "warri": 4663,
      "surprises": 4664,
      "roman": 4665,
      "touches": 4666,
      "studios": 4667,
      "protect": 4668,
      "minisc": 4669,
      "australian": 4670,
      "security": 4671,
      "refreshing": 4672,
      "fid": 4673,
      "gand": 4674,
      "jaw": 4675,
      "rer": 4676,
      "oul": 4677,
      "moore": 4678,
      "enda": 4679,
      "display": 4680,
      "ruin": 4681,
      "closer": 4682,
      "landsc": 4683,
      "cliff": 4684,
      "fortune": 4685,
      "universal": 4686,
      "structure": 4687,
      "habit": 4688,
      "source": 4689,
      "thetop": 4690,
      "outrage": 4691,
      "rell": 4692,
      "iles": 4693,
      "artists": 4694,
      "tack": 4695,
      "plans": 4696,
      "storm": 4697,
      "integr": 4698,
      "storytelling": 4699,
      "dragon": 4700,
      "resist": 4701,
      "overthetop": 4702,
      "aliens": 4703,
      "pati": 4704,
      "critical": 4705,
      "previously": 4706,
      "professor": 4707,
      "sinatra": 4708,
      "jail": 4709,
      "arms": 4710,
      "chron": 4711,
      "lov": 4712,
      "ripoff": 4713,
      "exagger": 4714,
      "pool": 4715,
      "trap": 4716,
      "uted": 4717,
      "kings": 4718,
      "brick": 4719,
      "minds": 4720,
      "kinds": 4721,
      "notch": 4722,
      "metal": 4723,
      "grim": 4724,
      "speaks": 4725,
      "idiot": 4726,
      "nur": 4727,
      "xist": 4728,
      "edward": 4729,
      "degree": 4730,
      "spy": 4731,
      "cooper": 4732,
      "chose": 4733,
      "ideal": 4734,
      "mainstream": 4735,
      "treasure": 4736,
      "accents": 4737,
      "franch": 4738,
      "suffers": 4739,
      "enemy": 4740,
      "roger": 4741,
      "eves": 4742,
      "neys": 4743,
      "dos": 4744,
      "served": 4745,
      "tales": 4746,
      "colors": 4747,
      "subtitles": 4748,
      "contest": 4749,
      "annab": 4750,
      "deadly": 4751,
      "latest": 4752,
      "princess": 4753,
      "granted": 4754,
      "emphas": 4755,
      "kore": 4756,
      "nas": 4757,
      "sides": 4758,
      "ware": 4759,
      "atl": 4760,
      "thro": 4761,
      "shaw": 4762,
      "uninteresting": 4763,
      "mail": 4764,
      "isol": 4765,
      "whoever": 4766,
      "sincer": 4767,
      "myth": 4768,
      "cyn": 4769,
      "burns": 4770,
      "experiences": 4771,
      "benef": 4772,
      "mistakes": 4773,
      "execution": 4774,
      "accidentally": 4775,
      "victoria": 4776,
      "widow": 4777,
      "veteran": 4778,
      "propaganda": 4779,
      "kur": 4780,
      "stair": 4781,
      "mothers": 4782,
      "feed": 4783,
      "realizes": 4784,
      "inson": 4785,
      "carol": 4786,
      "porno": 4787,
      "cs": 4788,
      "wers": 4789,
      "wwi": 4790,
      "invisible": 4791,
      "crude": 4792,
      "particip": 4793,
      "hammer": 4794,
      "twisted": 4795,
      "combined": 4796,
      "breathtaking": 4797,
      "communic": 4798,
      "dollars": 4799,
      "prostit": 4800,
      "fon": 4801,
      "hous": 4802,
      "opt": 4803,
      "fee": 4804,
      "andor": 4805,
      "matrix": 4806,
      "folk": 4807,
      "alike": 4808,
      "convince": 4809,
      "universe": 4810,
      "struggling": 4811,
      "sympathy": 4812,
      "distribut": 4813,
      "guilty": 4814,
      "rum": 4815,
      "reminisc": 4816,
      "chor": 4817,
      "improve": 4818,
      "poign": 4819,
      "wouldve": 4820,
      "dozen": 4821,
      "figures": 4822,
      "blah": 4823,
      "designed": 4824,
      "hong": 4825,
      "nude": 4826,
      "root": 4827,
      "unconvincing": 4828,
      "odys": 4829,
      "abuse": 4830,
      "anderson": 4831,
      "bore": 4832,
      "gritty": 4833,
      "friday": 4834,
      "committed": 4835,
      "walked": 4836,
      "hearted": 4837,
      "anagh": 4838,
      "sulli": 4839,
      "demons": 4840,
      "technically": 4841,
      "recognize": 4842,
      "cabin": 4843,
      "frightening": 4844,
      "establish": 4845,
      "atrocious": 4846,
      "plausible": 4847,
      "aur": 4848,
      "fond": 4849,
      "intr": 4850,
      "modest": 4851,
      "keys": 4852,
      "complain": 4853,
      "masters": 4854,
      "interview": 4855,
      "overwhel": 4856,
      "lugo": 4857,
      "magical": 4858,
      "mirac": 4859,
      "kis": 4860,
      "chill": 4861,
      "elli": 4862,
      "rod": 4863,
      "alling": 4864,
      "hole": 4865,
      "confess": 4866,
      "downright": 4867,
      "occasional": 4868,
      "thumb": 4869,
      "beck": 4870,
      "guid": 4871,
      "performed": 4872,
      "factory": 4873,
      "jobs": 4874,
      "femin": 4875,
      "strict": 4876,
      "suspenseful": 4877,
      "narration": 4878,
      "explains": 4879,
      "sensitive": 4880,
      "legendary": 4881,
      "featured": 4882,
      "reputation": 4883,
      "mous": 4884,
      "athan": 4885,
      "drum": 4886,
      "prime": 4887,
      "warned": 4888,
      "ville": 4889,
      "touched": 4890,
      "steps": 4891,
      "crying": 4892,
      "offered": 4893,
      "journal": 4894,
      "massive": 4895,
      "wilder": 4896,
      "sarah": 4897,
      "department": 4898,
      "explor": 4899,
      "bull": 4900,
      "flight": 4901,
      "concent": 4902,
      "which": 4903,
      "mud": 4904,
      "theory": 4905,
      "cring": 4906,
      "happiness": 4907,
      "hugh": 4908,
      "borrow": 4909,
      "worthwhile": 4910,
      "davi": 4911,
      "favorites": 4912,
      "required": 4913,
      "knock": 4914,
      "vietnam": 4915,
      "variety": 4916,
      "stolen": 4917,
      "cence": 4918,
      "plo": 4919,
      "addict": 4920,
      "spite": 4921,
      "nostal": 4922,
      "meat": 4923,
      "everywhere": 4924,
      "surface": 4925,
      "border": 4926,
      "chain": 4927,
      "darkness": 4928,
      "sorts": 4929,
      "suspic": 4930,
      "melodrama": 4931,
      "remotely": 4932,
      "conversation": 4933,
      "condition": 4934,
      "ium": 4935,
      "sag": 4936,
      "atically": 4937,
      "chased": 4938,
      "dean": 4939,
      "goth": 4940,
      "trapped": 4941,
      "tax": 4942,
      "spends": 4943,
      "hired": 4944,
      "betray": 4945,
      "bush": 4946,
      "obsc": 4947,
      "warming": 4948,
      "driver": 4949,
      "schem": 4950,
      "birds": 4951,
      "slapstick": 4952,
      "intellectual": 4953,
      "lonely": 4954,
      "cous": 4955,
      "dys": 4956,
      "tag": 4957,
      "tong": 4958,
      "alice": 4959,
      "prevent": 4960,
      "toy": 4961,
      "truck": 4962,
      "notorious": 4963,
      "listening": 4964,
      "scares": 4965,
      "captiv": 4966,
      "cros": 4967,
      "network": 4968,
      "bothered": 4969,
      "complicated": 4970,
      "abandoned": 4971,
      "sophistic": 4972,
      "mgm": 4973,
      "nostalg": 4974,
      "cis": 4975,
      "advant": 4976,
      "shan": 4977,
      "firm": 4978,
      "branagh": 4979,
      "legal": 4980,
      "torn": 4981,
      "effectively": 4982,
      "wilson": 4983,
      "blockbuster": 4984,
      "fabulous": 4985,
      "toler": 4986,
      "zabeth": 4987,
      "bone": 4988,
      "bmovie": 4989,
      "bang": 4990,
      "uff": 4991,
      "zard": 4992,
      "alright": 4993,
      "ita": 4994,
      "libr": 4995,
      "sham": 4996,
      "starred": 4997,
      "jeal": 4998,
      "rule": 4999
    },
    "merges": [
      [
        "i",
        "n"
      ],
      [
        "e",
        "r"
      ],
      [
        "e",
        "s"
      ],
      [
        "e",
        "n"
      ],
      [
        "o",
        "n"
      ],
      [
        "r",
        "e"
      ],
      [
        "in",
        "g"
      ],
      [
        "a",
        "n"
      ],
      [
        "a",
        "l"
      ],
      [
        "s",
        "t"
      ],
      [
        "a",
        "r"
      ],
      [
        "e",
        "d"
      ],
      [
        "o",
        "r"
      ],
      [
        "a",
        "t"
      ],
      [
        "o",
        "u"
      ],
      [
        "i",
        "l"
      ],
      [
        "t",
        "h"
      ],
      [
        "l",
        "e"
      ],
      [
        "l",
        "y"
      ],
      [
        "c",
        "h"
      ],
      [
        "c",
        "t"
      ],
      [
        "s",
        "e"
      ],
      [
        "i",
        "t"
      ],
      [
        "v",
        "i"
      ],
      [
        "l",
        "i"
      ],
      [
        "m",
        "o"
      ],
      [
        "en",
        "t"
      ],
      [
        "o",
        "m"
      ],
      [
        "i",
        "c"
      ],
      [
        "l",
        "o"
      ],
      [
        "a",
        "d"
      ],
      [
        "e",
        "l"
      ],
      [
        "i",
        "on"
      ],
      [
        "a",
        "y"
      ],
      [
        "r",
        "i"
      ],
      [
        "r",
        "o"
      ],
      [
        "e",
        "v"
      ],
      [
        "s",
        "h"
      ],
      [
        "g",
        "h"
      ],
      [
        "e",
        "t"
      ],
      [
        "a",
        "m"
      ],
      [
        "mo",
        "vi"
      ],
      [
        "f",
        "il"
      ],
      [
        "a",
        "ct"
      ],
      [
        "d",
        "i"
      ],
      [
        "u",
        "n"
      ],
      [
        "i",
        "m"
      ],
      [
        "fil",
        "m"
      ],
      [
        "k",
        "e"
      ],
      [
        "on",
        "e"
      ],
      [
        "a",
        "s"
      ],
      [
        "c",
        "e"
      ],
      [
        "d",
        "e"
      ],
      [
        "movi",
        "e"
      ],
      [
        "er",
        "s"
      ],
      [
        "g",
        "o"
      ],
      [
        "v",
        "e"
      ],
      [
        "o",
        "l"
      ],
      [
        "a",
        "p"
      ],
      [
        "s",
        "u"
      ],
      [
        "o",
        "w"
      ],
      [
        "c",
        "om"
      ],
      [
        "u",
        "l"
      ],
      [
        "p",
        "e"
      ],
      [
        "m",
        "a"
      ],
      [
        "al",
        "ly"
      ],
      [
        "s",
        "c"
      ],
      [
        "c",
        "k"
      ],
      [
        "o",
        "d"
      ],
      [
        "es",
        "t"
      ],
      [
        "l",
        "a"
      ],
      [
        "es",
        "s"
      ],
      [
        "i",
        "r"
      ],
      [
        "m",
        "an"
      ],
      [
        "a",
        "b"
      ],
      [
        "e",
        "x"
      ],
      [
        "gh",
        "t"
      ],
      [
        "p",
        "o"
      ],
      [
        "l",
        "d"
      ],
      [
        "e",
        "m"
      ],
      [
        "t",
        "r"
      ],
      [
        "u",
        "r"
      ],
      [
        "ev",
        "er"
      ],
      [
        "an",
        "t"
      ],
      [
        "b",
        "e"
      ],
      [
        "o",
        "p"
      ],
      [
        "u",
        "s"
      ],
      [
        "u",
        "t"
      ],
      [
        "i",
        "s"
      ],
      [
        "en",
        "d"
      ],
      [
        "f",
        "e"
      ],
      [
        "t",
        "er"
      ],
      [
        "i",
        "d"
      ],
      [
        "a",
        "g"
      ],
      [
        "c",
        "on"
      ],
      [
        "ar",
        "t"
      ],
      [
        "ou",
        "ld"
      ],
      [
        "th",
        "ing"
      ],
      [
        "an",
        "d"
      ],
      [
        "w",
        "or"
      ],
      [
        "el",
        "l"
      ],
      [
        "ou",
        "n"
      ],
      [
        "li",
        "ke"
      ],
      [
        "n",
        "e"
      ],
      [
        "p",
        "ro"
      ],
      [
        "o",
        "t"
      ],
      [
        "p",
        "er"
      ],
      [
        "ou",
        "s"
      ],
      [
        "f",
        "or"
      ],
      [
        "o",
        "k"
      ],
      [
        "q",
        "u"
      ],
      [
        "a",
        "st"
      ],
      [
        "il",
        "l"
      ],
      [
        "i",
        "ve"
      ],
      [
        "th",
        "er"
      ],
      [
        "ch",
        "ar"
      ],
      [
        "t",
        "a"
      ],
      [
        "at",
        "ion"
      ],
      [
        "t",
        "im"
      ],
      [
        "n",
        "t"
      ],
      [
        "g",
        "et"
      ],
      [
        "w",
        "ay"
      ],
      [
        "in",
        "d"
      ],
      [
        "p",
        "l"
      ],
      [
        "m",
        "ent"
      ],
      [
        "at",
        "e"
      ],
      [
        "at",
        "ch"
      ],
      [
        "st",
        "or"
      ],
      [
        "r",
        "a"
      ],
      [
        "v",
        "er"
      ],
      [
        "s",
        "o"
      ],
      [
        "i",
        "g"
      ],
      [
        "w",
        "h"
      ],
      [
        "f",
        "ul"
      ],
      [
        "go",
        "od"
      ],
      [
        "e",
        "ar"
      ],
      [
        "in",
        "t"
      ],
      [
        "d",
        "er"
      ],
      [
        "f",
        "f"
      ],
      [
        "re",
        "at"
      ],
      [
        "b",
        "o"
      ],
      [
        "i",
        "st"
      ],
      [
        "char",
        "act"
      ],
      [
        "al",
        "l"
      ],
      [
        "m",
        "u"
      ],
      [
        "w",
        "atch"
      ],
      [
        "g",
        "e"
      ],
      [
        "stor",
        "y"
      ],
      [
        "th",
        "ou"
      ],
      [
        "se",
        "e"
      ],
      [
        "on",
        "g"
      ],
      [
        "ar",
        "d"
      ],
      [
        "om",
        "e"
      ],
      [
        "j",
        "o"
      ],
      [
        "ev",
        "en"
      ],
      [
        "w",
        "ould"
      ],
      [
        "ab",
        "le"
      ],
      [
        "it",
        "y"
      ],
      [
        "s",
        "p"
      ],
      [
        "g",
        "u"
      ],
      [
        "c",
        "i"
      ],
      [
        "p",
        "t"
      ],
      [
        "g",
        "r"
      ],
      [
        "u",
        "m"
      ],
      [
        "oun",
        "d"
      ],
      [
        "tim",
        "e"
      ],
      [
        "it",
        "e"
      ],
      [
        "n",
        "o"
      ],
      [
        "in",
        "e"
      ],
      [
        "p",
        "re"
      ],
      [
        "t",
        "e"
      ],
      [
        "at",
        "h"
      ],
      [
        "lo",
        "t"
      ],
      [
        "on",
        "t"
      ],
      [
        "i",
        "ght"
      ],
      [
        "a",
        "ck"
      ],
      [
        "k",
        "ing"
      ],
      [
        "i",
        "es"
      ],
      [
        "re",
        "d"
      ],
      [
        "re",
        "ally"
      ],
      [
        "a",
        "c"
      ],
      [
        "sh",
        "ow"
      ],
      [
        "b",
        "le"
      ],
      [
        "w",
        "ell"
      ],
      [
        "m",
        "e"
      ],
      [
        "w",
        "o"
      ],
      [
        "sc",
        "en"
      ],
      [
        "p",
        "le"
      ],
      [
        "it",
        "t"
      ],
      [
        "p",
        "r"
      ],
      [
        "pl",
        "ay"
      ],
      [
        "w",
        "i"
      ],
      [
        "e",
        "p"
      ],
      [
        "d",
        "o"
      ],
      [
        "f",
        "a"
      ],
      [
        "ou",
        "r"
      ],
      [
        "u",
        "re"
      ],
      [
        "n",
        "ow"
      ],
      [
        "c",
        "o"
      ],
      [
        "ad",
        "e"
      ],
      [
        "lo",
        "ok"
      ],
      [
        "s",
        "ome"
      ],
      [
        "s",
        "a"
      ],
      [
        "lo",
        "w"
      ],
      [
        "th",
        "in"
      ],
      [
        "g",
        "reat"
      ],
      [
        "or",
        "t"
      ],
      [
        "b",
        "ad"
      ],
      [
        "en",
        "ce"
      ],
      [
        "re",
        "ct"
      ],
      [
        "h",
        "e"
      ],
      [
        "ag",
        "e"
      ],
      [
        "mu",
        "ch"
      ],
      [
        "c",
        "l"
      ],
      [
        "f",
        "ir"
      ],
      [
        "b",
        "r"
      ],
      [
        "s",
        "i"
      ],
      [
        "pe",
        "op"
      ],
      [
        "c",
        "ould"
      ],
      [
        "d",
        "r"
      ],
      [
        "ever",
        "y"
      ],
      [
        "u",
        "d"
      ],
      [
        "di",
        "rect"
      ],
      [
        "k",
        "now"
      ],
      [
        "re",
        "al"
      ],
      [
        "as",
        "s"
      ],
      [
        "fir",
        "st"
      ],
      [
        "al",
        "so"
      ],
      [
        "peop",
        "le"
      ],
      [
        "p",
        "art"
      ],
      [
        "t",
        "y"
      ],
      [
        "b",
        "er"
      ],
      [
        "d",
        "u"
      ],
      [
        "e",
        "w"
      ],
      [
        "ma",
        "ke"
      ],
      [
        "w",
        "r"
      ],
      [
        "or",
        "s"
      ],
      [
        "an",
        "y"
      ],
      [
        "i",
        "v"
      ],
      [
        "f",
        "un"
      ],
      [
        "ol",
        "d"
      ],
      [
        "s",
        "er"
      ],
      [
        "d",
        "ont"
      ],
      [
        "a",
        "u"
      ],
      [
        "i",
        "e"
      ],
      [
        "k",
        "es"
      ],
      [
        "am",
        "e"
      ],
      [
        "ap",
        "p"
      ],
      [
        "m",
        "ade"
      ],
      [
        "ic",
        "k"
      ],
      [
        "m",
        "ar"
      ],
      [
        "h",
        "i"
      ],
      [
        "st",
        "r"
      ],
      [
        "movi",
        "es"
      ],
      [
        "in",
        "ter"
      ],
      [
        "an",
        "s"
      ],
      [
        "film",
        "s"
      ],
      [
        "thin",
        "k"
      ],
      [
        "s",
        "ay"
      ],
      [
        "se",
        "em"
      ],
      [
        "ic",
        "e"
      ],
      [
        "at",
        "ed"
      ],
      [
        "charact",
        "ers"
      ],
      [
        "c",
        "es"
      ],
      [
        "d",
        "es"
      ],
      [
        "c",
        "a"
      ],
      [
        "wor",
        "k"
      ],
      [
        "ic",
        "al"
      ],
      [
        "po",
        "s"
      ],
      [
        "p",
        "lot"
      ],
      [
        "m",
        "in"
      ],
      [
        "f",
        "in"
      ],
      [
        "l",
        "ess"
      ],
      [
        "vi",
        "ew"
      ],
      [
        "charact",
        "er"
      ],
      [
        "ta",
        "in"
      ],
      [
        "b",
        "ack"
      ],
      [
        "thou",
        "gh"
      ],
      [
        "a",
        "k"
      ],
      [
        "e",
        "f"
      ],
      [
        "an",
        "ce"
      ],
      [
        "po",
        "int"
      ],
      [
        "a",
        "v"
      ],
      [
        "b",
        "et"
      ],
      [
        "lo",
        "ve"
      ],
      [
        "di",
        "s"
      ],
      [
        "f",
        "r"
      ],
      [
        "man",
        "y"
      ],
      [
        "pe",
        "ct"
      ],
      [
        "t",
        "wo"
      ],
      [
        "en",
        "s"
      ],
      [
        "an",
        "g"
      ],
      [
        "n",
        "y"
      ],
      [
        "act",
        "ing"
      ],
      [
        "i",
        "ous"
      ],
      [
        "se",
        "en"
      ],
      [
        "n",
        "ever"
      ],
      [
        "h",
        "o"
      ],
      [
        "fe",
        "ct"
      ],
      [
        "y",
        "ear"
      ],
      [
        "w",
        "ant"
      ],
      [
        "h",
        "or"
      ],
      [
        "li",
        "fe"
      ],
      [
        "u",
        "p"
      ],
      [
        "p",
        "la"
      ],
      [
        "b",
        "est"
      ],
      [
        "ar",
        "y"
      ],
      [
        "w",
        "e"
      ],
      [
        "itt",
        "le"
      ],
      [
        "r",
        "y"
      ],
      [
        "t",
        "ur"
      ],
      [
        "l",
        "ittle"
      ],
      [
        "p",
        "a"
      ],
      [
        "ou",
        "gh"
      ],
      [
        "ne",
        "w"
      ],
      [
        "f",
        "i"
      ],
      [
        "h",
        "er"
      ],
      [
        "f",
        "t"
      ],
      [
        "c",
        "re"
      ],
      [
        "m",
        "ay"
      ],
      [
        "st",
        "er"
      ],
      [
        "y",
        "s"
      ],
      [
        "t",
        "o"
      ],
      [
        "k",
        "ill"
      ],
      [
        "c",
        "ent"
      ],
      [
        "at",
        "t"
      ],
      [
        "p",
        "ri"
      ],
      [
        "f",
        "ri"
      ],
      [
        "r",
        "es"
      ],
      [
        "m",
        "i"
      ],
      [
        "il",
        "y"
      ],
      [
        "th",
        "e"
      ],
      [
        "p",
        "h"
      ],
      [
        "t",
        "s"
      ],
      [
        "st",
        "ill"
      ],
      [
        "n",
        "ing"
      ],
      [
        "in",
        "s"
      ],
      [
        "at",
        "s"
      ],
      [
        "tr",
        "u"
      ],
      [
        "bet",
        "ter"
      ],
      [
        "c",
        "ar"
      ],
      [
        "i",
        "z"
      ],
      [
        "l",
        "es"
      ],
      [
        "am",
        "er"
      ],
      [
        "a",
        "w"
      ],
      [
        "f",
        "o"
      ],
      [
        "o",
        "ver"
      ],
      [
        "v",
        "ed"
      ],
      [
        "ct",
        "ion"
      ],
      [
        "u",
        "ally"
      ],
      [
        "g",
        "en"
      ],
      [
        "per",
        "for"
      ],
      [
        "f",
        "ind"
      ],
      [
        "wh",
        "o"
      ],
      [
        "ath",
        "er"
      ],
      [
        "d",
        "ay"
      ],
      [
        "su",
        "r"
      ],
      [
        "ev",
        "e"
      ],
      [
        "re",
        "ad"
      ],
      [
        "y",
        "ing"
      ],
      [
        "c",
        "r"
      ],
      [
        "c",
        "ast"
      ],
      [
        "v",
        "es"
      ],
      [
        "scen",
        "e"
      ],
      [
        "ch",
        "e"
      ],
      [
        "com",
        "e"
      ],
      [
        "fe",
        "el"
      ],
      [
        "ou",
        "t"
      ],
      [
        "pe",
        "ci"
      ],
      [
        "t",
        "al"
      ],
      [
        "s",
        "on"
      ],
      [
        "scen",
        "es"
      ],
      [
        "s",
        "im"
      ],
      [
        "inter",
        "est"
      ],
      [
        "an",
        "o"
      ],
      [
        "st",
        "and"
      ],
      [
        "st",
        "ar"
      ],
      [
        "er",
        "tain"
      ],
      [
        "at",
        "er"
      ],
      [
        "f",
        "am"
      ],
      [
        "h",
        "app"
      ],
      [
        "ch",
        "o"
      ],
      [
        "some",
        "thing"
      ],
      [
        "p",
        "ar"
      ],
      [
        "b",
        "u"
      ],
      [
        "b",
        "l"
      ],
      [
        "i",
        "p"
      ],
      [
        "t",
        "ri"
      ],
      [
        "fri",
        "end"
      ],
      [
        "ir",
        "l"
      ],
      [
        "be",
        "li"
      ],
      [
        "y",
        "ou"
      ],
      [
        "v",
        "ers"
      ],
      [
        "s",
        "ing"
      ],
      [
        "o",
        "b"
      ],
      [
        "re",
        "e"
      ],
      [
        "m",
        "on"
      ],
      [
        "g",
        "irl"
      ],
      [
        "t",
        "ing"
      ],
      [
        "h",
        "ow"
      ],
      [
        "en",
        "se"
      ],
      [
        "sc",
        "re"
      ],
      [
        "w",
        "ar"
      ],
      [
        "w",
        "om"
      ],
      [
        "ab",
        "ly"
      ],
      [
        "as",
        "on"
      ],
      [
        "di",
        "d"
      ],
      [
        "at",
        "ing"
      ],
      [
        "perfor",
        "man"
      ],
      [
        "go",
        "t"
      ],
      [
        "pre",
        "t"
      ],
      [
        "tur",
        "n"
      ],
      [
        "ri",
        "ght"
      ],
      [
        "ion",
        "s"
      ],
      [
        "m",
        "us"
      ],
      [
        "act",
        "ors"
      ],
      [
        "do",
        "es"
      ],
      [
        "ff",
        "er"
      ],
      [
        "i",
        "sh"
      ],
      [
        "watch",
        "ing"
      ],
      [
        "ro",
        "w"
      ],
      [
        "year",
        "s"
      ],
      [
        "does",
        "nt"
      ],
      [
        "fun",
        "ny"
      ],
      [
        "g",
        "iv"
      ],
      [
        "b",
        "ig"
      ],
      [
        "b",
        "it"
      ],
      [
        "s",
        "y"
      ],
      [
        "jo",
        "y"
      ],
      [
        "la",
        "ck"
      ],
      [
        "un",
        "der"
      ],
      [
        "m",
        "em"
      ],
      [
        "f",
        "act"
      ],
      [
        "i",
        "re"
      ],
      [
        "p",
        "ers"
      ],
      [
        "r",
        "or"
      ],
      [
        "did",
        "nt"
      ],
      [
        "se",
        "t"
      ],
      [
        "oun",
        "g"
      ],
      [
        "ex",
        "t"
      ],
      [
        "st",
        "art"
      ],
      [
        "i",
        "al"
      ],
      [
        "l",
        "ong"
      ],
      [
        "ano",
        "ther"
      ],
      [
        "i",
        "de"
      ],
      [
        "y",
        "oung"
      ],
      [
        "com",
        "ed"
      ],
      [
        "direct",
        "or"
      ],
      [
        "v",
        "ing"
      ],
      [
        "ma",
        "kes"
      ],
      [
        "way",
        "s"
      ],
      [
        "no",
        "thing"
      ],
      [
        "h",
        "u"
      ],
      [
        "m",
        "is"
      ],
      [
        "la",
        "u"
      ],
      [
        "mo",
        "st"
      ],
      [
        "act",
        "ually"
      ],
      [
        "go",
        "ing"
      ],
      [
        "ment",
        "s"
      ],
      [
        "or",
        "ig"
      ],
      [
        "li",
        "ght"
      ],
      [
        "p",
        "ort"
      ],
      [
        "k",
        "s"
      ],
      [
        "hi",
        "gh"
      ],
      [
        "wor",
        "ld"
      ],
      [
        "pro",
        "du"
      ],
      [
        "il",
        "li"
      ],
      [
        "ex",
        "c"
      ],
      [
        "orig",
        "in"
      ],
      [
        "c",
        "ol"
      ],
      [
        "p",
        "ut"
      ],
      [
        "a",
        "ch"
      ],
      [
        "com",
        "m"
      ],
      [
        "ul",
        "t"
      ],
      [
        "en",
        "joy"
      ],
      [
        "i",
        "an"
      ],
      [
        "su",
        "p"
      ],
      [
        "l",
        "u"
      ],
      [
        "j",
        "e"
      ],
      [
        "s",
        "in"
      ],
      [
        "act",
        "ion"
      ],
      [
        "l",
        "l"
      ],
      [
        "b",
        "or"
      ],
      [
        "a",
        "ut"
      ],
      [
        "com",
        "es"
      ],
      [
        "h",
        "el"
      ],
      [
        "st",
        "e"
      ],
      [
        "su",
        "b"
      ],
      [
        "f",
        "ar"
      ],
      [
        "ut",
        "e"
      ],
      [
        "il",
        "d"
      ],
      [
        "ent",
        "s"
      ],
      [
        "c",
        "le"
      ],
      [
        "con",
        "t"
      ],
      [
        "h",
        "ard"
      ],
      [
        "c",
        "or"
      ],
      [
        "c",
        "ed"
      ],
      [
        "thou",
        "ght"
      ],
      [
        "n",
        "i"
      ],
      [
        "wo",
        "od"
      ],
      [
        "r",
        "u"
      ],
      [
        "c",
        "ant"
      ],
      [
        "w",
        "on"
      ],
      [
        "ap",
        "pe"
      ],
      [
        "c",
        "ap"
      ],
      [
        "th",
        "ats"
      ],
      [
        "ri",
        "pt"
      ],
      [
        "a",
        "z"
      ],
      [
        "n",
        "er"
      ],
      [
        "qu",
        "ite"
      ],
      [
        "b",
        "ro"
      ],
      [
        "com",
        "ple"
      ],
      [
        "origin",
        "al"
      ],
      [
        "thing",
        "s"
      ],
      [
        "scre",
        "en"
      ],
      [
        "en",
        "g"
      ],
      [
        "k",
        "id"
      ],
      [
        "ne",
        "ed"
      ],
      [
        "pret",
        "ty"
      ],
      [
        "m",
        "y"
      ],
      [
        "p",
        "or"
      ],
      [
        "m",
        "er"
      ],
      [
        "ce",
        "pt"
      ],
      [
        "se",
        "x"
      ],
      [
        "ar",
        "ound"
      ],
      [
        "seem",
        "s"
      ],
      [
        "pers",
        "on"
      ],
      [
        "a",
        "re"
      ],
      [
        "a",
        "se"
      ],
      [
        "m",
        "ind"
      ],
      [
        "it",
        "ing"
      ],
      [
        "hor",
        "ror"
      ],
      [
        "won",
        "der"
      ],
      [
        "p",
        "i"
      ],
      [
        "ef",
        "fect"
      ],
      [
        "in",
        "v"
      ],
      [
        "d",
        "s"
      ],
      [
        "ta",
        "ke"
      ],
      [
        "ma",
        "in"
      ],
      [
        "su",
        "re"
      ],
      [
        "how",
        "ever"
      ],
      [
        "for",
        "t"
      ],
      [
        "be",
        "g"
      ],
      [
        "sc",
        "ript"
      ],
      [
        "g",
        "ive"
      ],
      [
        "k",
        "ind"
      ],
      [
        "b",
        "as"
      ],
      [
        "t",
        "ell"
      ],
      [
        "ing",
        "s"
      ],
      [
        "get",
        "s"
      ],
      [
        "lau",
        "gh"
      ],
      [
        "tr",
        "a"
      ],
      [
        "en",
        "ough"
      ],
      [
        "sa",
        "w"
      ],
      [
        "ic",
        "ally"
      ],
      [
        "s",
        "m"
      ],
      [
        "interest",
        "ing"
      ],
      [
        "pr",
        "ess"
      ],
      [
        "amer",
        "ic"
      ],
      [
        "la",
        "st"
      ],
      [
        "ate",
        "ly"
      ],
      [
        "ation",
        "s"
      ],
      [
        "ul",
        "ar"
      ],
      [
        "n",
        "ot"
      ],
      [
        "pr",
        "es"
      ],
      [
        "s",
        "ol"
      ],
      [
        "v",
        "el"
      ],
      [
        "h",
        "and"
      ],
      [
        "c",
        "our"
      ],
      [
        "ex",
        "pect"
      ],
      [
        "c",
        "u"
      ],
      [
        "mu",
        "st"
      ],
      [
        "s",
        "s"
      ],
      [
        "cl",
        "ass"
      ],
      [
        "ser",
        "ies"
      ],
      [
        "le",
        "t"
      ],
      [
        "n",
        "ess"
      ],
      [
        "wor",
        "th"
      ],
      [
        "be",
        "aut"
      ],
      [
        "n",
        "ight"
      ],
      [
        "com",
        "p"
      ],
      [
        "al",
        "s"
      ],
      [
        "tim",
        "es"
      ],
      [
        "mo",
        "t"
      ],
      [
        "gr",
        "ap"
      ],
      [
        "wi",
        "thou"
      ],
      [
        "withou",
        "t"
      ],
      [
        "it",
        "s"
      ],
      [
        "c",
        "ess"
      ],
      [
        "us",
        "ed"
      ],
      [
        "l",
        "ed"
      ],
      [
        "re",
        "ason"
      ],
      [
        "al",
        "ways"
      ],
      [
        "b",
        "ar"
      ],
      [
        "comed",
        "y"
      ],
      [
        "m",
        "at"
      ],
      [
        "od",
        "y"
      ],
      [
        "mus",
        "ic"
      ],
      [
        "is",
        "nt"
      ],
      [
        "d",
        "one"
      ],
      [
        "ro",
        "le"
      ],
      [
        "h",
        "ol"
      ],
      [
        "le",
        "ad"
      ],
      [
        "h",
        "es"
      ],
      [
        "vi",
        "ous"
      ],
      [
        "ut",
        "es"
      ],
      [
        "in",
        "es"
      ],
      [
        "c",
        "all"
      ],
      [
        "ther",
        "es"
      ],
      [
        "c",
        "lo"
      ],
      [
        "end",
        "ing"
      ],
      [
        "al",
        "most"
      ],
      [
        "sh",
        "ot"
      ],
      [
        "bo",
        "ok"
      ],
      [
        "h",
        "y"
      ],
      [
        "th",
        "r"
      ],
      [
        "se",
        "qu"
      ],
      [
        "le",
        "ast"
      ],
      [
        "l",
        "and"
      ],
      [
        "fam",
        "ily"
      ],
      [
        "al",
        "e"
      ],
      [
        "di",
        "ffer"
      ],
      [
        "who",
        "le"
      ],
      [
        "m",
        "ed"
      ],
      [
        "re",
        "l"
      ],
      [
        "ma",
        "king"
      ],
      [
        "si",
        "de"
      ],
      [
        "l",
        "ine"
      ],
      [
        "m",
        "ight"
      ],
      [
        "on",
        "s"
      ],
      [
        "m",
        "s"
      ],
      [
        "he",
        "ad"
      ],
      [
        "al",
        "o"
      ],
      [
        "w",
        "a"
      ],
      [
        "ca",
        "re"
      ],
      [
        "s",
        "ound"
      ],
      [
        "pro",
        "b"
      ],
      [
        "vi",
        "s"
      ],
      [
        "u",
        "se"
      ],
      [
        "g",
        "er"
      ],
      [
        "ou",
        "se"
      ],
      [
        "gu",
        "y"
      ],
      [
        "h",
        "a"
      ],
      [
        "p",
        "ie"
      ],
      [
        "a",
        "way"
      ],
      [
        "ow",
        "n"
      ],
      [
        "c",
        "oun"
      ],
      [
        "an",
        "k"
      ],
      [
        "tr",
        "y"
      ],
      [
        "r",
        "un"
      ],
      [
        "comple",
        "te"
      ],
      [
        "any",
        "thing"
      ],
      [
        "min",
        "utes"
      ],
      [
        "w",
        "al"
      ],
      [
        "o",
        "ff"
      ],
      [
        "t",
        "v"
      ],
      [
        "f",
        "ound"
      ],
      [
        "i",
        "a"
      ],
      [
        "h",
        "al"
      ],
      [
        "d",
        "a"
      ],
      [
        "s",
        "po"
      ],
      [
        "c",
        "ri"
      ],
      [
        "an",
        "n"
      ],
      [
        "sin",
        "ce"
      ],
      [
        "performan",
        "ce"
      ],
      [
        "sh",
        "o"
      ],
      [
        "h",
        "n"
      ],
      [
        "su",
        "per"
      ],
      [
        "ful",
        "ly"
      ],
      [
        "li",
        "c"
      ],
      [
        "f",
        "ol"
      ],
      [
        "e",
        "y"
      ],
      [
        "prob",
        "ably"
      ],
      [
        "au",
        "di"
      ],
      [
        "d",
        "en"
      ],
      [
        "ent",
        "ertain"
      ],
      [
        "u",
        "al"
      ],
      [
        "ri",
        "ble"
      ],
      [
        "me",
        "an"
      ],
      [
        "hel",
        "p"
      ],
      [
        "y",
        "et"
      ],
      [
        "ri",
        "st"
      ],
      [
        "g",
        "g"
      ],
      [
        "t",
        "w"
      ],
      [
        "wom",
        "an"
      ],
      [
        "c",
        "ame"
      ],
      [
        "jo",
        "hn"
      ],
      [
        "r",
        "est"
      ],
      [
        "an",
        "e"
      ],
      [
        "dr",
        "am"
      ],
      [
        "ar",
        "k"
      ],
      [
        "f",
        "li"
      ],
      [
        "r",
        "ather"
      ],
      [
        "wor",
        "st"
      ],
      [
        "play",
        "ed"
      ],
      [
        "an",
        "ge"
      ],
      [
        "sh",
        "ip"
      ],
      [
        "as",
        "nt"
      ],
      [
        "m",
        "en"
      ],
      [
        "k",
        "ed"
      ],
      [
        "c",
        "ra"
      ],
      [
        "o",
        "s"
      ],
      [
        "h",
        "ouse"
      ],
      [
        "pla",
        "ce"
      ],
      [
        "s",
        "peci"
      ],
      [
        "one",
        "y"
      ],
      [
        "c",
        "ut"
      ],
      [
        "th",
        "ers"
      ],
      [
        "po",
        "or"
      ],
      [
        "on",
        "es"
      ],
      [
        "st",
        "u"
      ],
      [
        "ep",
        "is"
      ],
      [
        "b",
        "lo"
      ],
      [
        "c",
        "li"
      ],
      [
        "beaut",
        "i"
      ],
      [
        "h",
        "ar"
      ],
      [
        "c",
        "ur"
      ],
      [
        "con",
        "s"
      ],
      [
        "o",
        "re"
      ],
      [
        "an",
        "im"
      ],
      [
        "at",
        "ive"
      ],
      [
        "any",
        "one"
      ],
      [
        "m",
        "ur"
      ],
      [
        "h",
        "um"
      ],
      [
        "di",
        "alo"
      ],
      [
        "happ",
        "en"
      ],
      [
        "bo",
        "y"
      ],
      [
        "a",
        "ve"
      ],
      [
        "es",
        "peci"
      ],
      [
        "ri",
        "d"
      ],
      [
        "ke",
        "ep"
      ],
      [
        "al",
        "though"
      ],
      [
        "especi",
        "ally"
      ],
      [
        "differ",
        "ent"
      ],
      [
        "cour",
        "se"
      ],
      [
        "b",
        "ud"
      ],
      [
        "beli",
        "eve"
      ],
      [
        "o",
        "grap"
      ],
      [
        "ig",
        "n"
      ],
      [
        "it",
        "ion"
      ],
      [
        "sur",
        "pri"
      ],
      [
        "c",
        "in"
      ],
      [
        "c",
        "id"
      ],
      [
        "s",
        "k"
      ],
      [
        "look",
        "ing"
      ],
      [
        "j",
        "u"
      ],
      [
        "jo",
        "b"
      ],
      [
        "m",
        "or"
      ],
      [
        "se",
        "con"
      ],
      [
        "em",
        "pt"
      ],
      [
        "appe",
        "ar"
      ],
      [
        "tr",
        "ying"
      ],
      [
        "d",
        "an"
      ],
      [
        "on",
        "d"
      ],
      [
        "go",
        "es"
      ],
      [
        "f",
        "an"
      ],
      [
        "p",
        "ed"
      ],
      [
        "v",
        "o"
      ],
      [
        "pi",
        "ct"
      ],
      [
        "pos",
        "si"
      ],
      [
        "per",
        "fect"
      ],
      [
        "g",
        "l"
      ],
      [
        "b",
        "lack"
      ],
      [
        "b",
        "ody"
      ],
      [
        "d",
        "v"
      ],
      [
        "t",
        "it"
      ],
      [
        "u",
        "e"
      ],
      [
        "p",
        "ow"
      ],
      [
        "s",
        "ense"
      ],
      [
        "per",
        "i"
      ],
      [
        "show",
        "s"
      ],
      [
        "look",
        "s"
      ],
      [
        "ic",
        "s"
      ],
      [
        "hu",
        "man"
      ],
      [
        "i",
        "ther"
      ],
      [
        "play",
        "s"
      ],
      [
        "b",
        "ly"
      ],
      [
        "ad",
        "d"
      ],
      [
        "c",
        "y"
      ],
      [
        "at",
        "ur"
      ],
      [
        "f",
        "all"
      ],
      [
        "mem",
        "ber"
      ],
      [
        "c",
        "reat"
      ],
      [
        "f",
        "ight"
      ],
      [
        "act",
        "or"
      ],
      [
        "li",
        "sh"
      ],
      [
        "ch",
        "a"
      ],
      [
        "pos",
        "ed"
      ],
      [
        "h",
        "ear"
      ],
      [
        "pro",
        "ble"
      ],
      [
        "comm",
        "end"
      ],
      [
        "e",
        "le"
      ],
      [
        "am",
        "p"
      ],
      [
        "ge",
        "ther"
      ],
      [
        "st",
        "y"
      ],
      [
        "tru",
        "e"
      ],
      [
        "to",
        "gether"
      ],
      [
        "m",
        "oney"
      ],
      [
        "v",
        "en"
      ],
      [
        "im",
        "ag"
      ],
      [
        "c",
        "er"
      ],
      [
        "il",
        "e"
      ],
      [
        "w",
        "asnt"
      ],
      [
        "may",
        "be"
      ],
      [
        "f",
        "ic"
      ],
      [
        "ste",
        "ad"
      ],
      [
        "w",
        "ard"
      ],
      [
        "v",
        "al"
      ],
      [
        "sim",
        "p"
      ],
      [
        "u",
        "su"
      ],
      [
        "je",
        "ct"
      ],
      [
        "n",
        "ice"
      ],
      [
        "sh",
        "ort"
      ],
      [
        "every",
        "thing"
      ],
      [
        "mis",
        "s"
      ],
      [
        "k",
        "en"
      ],
      [
        "w",
        "ast"
      ],
      [
        "b",
        "ut"
      ],
      [
        "fol",
        "low"
      ],
      [
        "hal",
        "f"
      ],
      [
        "c",
        "ertain"
      ],
      [
        "il",
        "ar"
      ],
      [
        "f",
        "el"
      ],
      [
        "vi",
        "de"
      ],
      [
        "f",
        "er"
      ],
      [
        "americ",
        "an"
      ],
      [
        "b",
        "re"
      ],
      [
        "re",
        "commend"
      ],
      [
        "r",
        "om"
      ],
      [
        "d",
        "et"
      ],
      [
        "l",
        "ater"
      ],
      [
        "it",
        "er"
      ],
      [
        "g",
        "re"
      ],
      [
        "ist",
        "ic"
      ],
      [
        "watch",
        "ed"
      ],
      [
        "gu",
        "e"
      ],
      [
        "fa",
        "v"
      ],
      [
        "t",
        "on"
      ],
      [
        "al",
        "ity"
      ],
      [
        "c",
        "ing"
      ],
      [
        "de",
        "ad"
      ],
      [
        "th",
        "ree"
      ],
      [
        "some",
        "one"
      ],
      [
        "dv",
        "d"
      ],
      [
        "b",
        "ur"
      ],
      [
        "de",
        "ath"
      ],
      [
        "p",
        "et"
      ],
      [
        "vers",
        "ion"
      ],
      [
        "ob",
        "vious"
      ],
      [
        "ta",
        "kes"
      ],
      [
        "l",
        "ing"
      ],
      [
        "s",
        "it"
      ],
      [
        "ne",
        "y"
      ],
      [
        "sa",
        "id"
      ],
      [
        "at",
        "es"
      ],
      [
        "en",
        "ces"
      ],
      [
        "re",
        "le"
      ],
      [
        "speci",
        "al"
      ],
      [
        "f",
        "ather"
      ],
      [
        "under",
        "stand"
      ],
      [
        "ap",
        "s"
      ],
      [
        "in",
        "stead"
      ],
      [
        "n",
        "a"
      ],
      [
        "effect",
        "s"
      ],
      [
        "wh",
        "at"
      ],
      [
        "re",
        "view"
      ],
      [
        "exc",
        "ell"
      ],
      [
        "ch",
        "rist"
      ],
      [
        "beauti",
        "ful"
      ],
      [
        "c",
        "ou"
      ],
      [
        "for",
        "m"
      ],
      [
        "ar",
        "ent"
      ],
      [
        "pie",
        "ce"
      ],
      [
        "t",
        "op"
      ],
      [
        "le",
        "ft"
      ],
      [
        "am",
        "es"
      ],
      [
        "h",
        "our"
      ],
      [
        "he",
        "art"
      ],
      [
        "id",
        "er"
      ],
      [
        "lo",
        "g"
      ],
      [
        "in",
        "cl"
      ],
      [
        "or",
        "y"
      ],
      [
        "audi",
        "ence"
      ],
      [
        "qu",
        "e"
      ],
      [
        "gen",
        "er"
      ],
      [
        "p",
        "s"
      ],
      [
        "c",
        "amer"
      ],
      [
        "excell",
        "ent"
      ],
      [
        "wi",
        "fe"
      ],
      [
        "beg",
        "in"
      ],
      [
        "every",
        "one"
      ],
      [
        "secon",
        "d"
      ],
      [
        "vi",
        "d"
      ],
      [
        "f",
        "la"
      ],
      [
        "de",
        "fin"
      ],
      [
        "see",
        "ing"
      ],
      [
        "sh",
        "es"
      ],
      [
        "di",
        "sc"
      ],
      [
        "ion",
        "al"
      ],
      [
        "el",
        "se"
      ],
      [
        "t",
        "ot"
      ],
      [
        "ly",
        "wood"
      ],
      [
        "e",
        "as"
      ],
      [
        "s",
        "pe"
      ],
      [
        "om",
        "b"
      ],
      [
        "a",
        "f"
      ],
      [
        "it",
        "ch"
      ],
      [
        "t",
        "ed"
      ],
      [
        "ent",
        "ire"
      ],
      [
        "c",
        "al"
      ],
      [
        "friend",
        "s"
      ],
      [
        "part",
        "ic"
      ],
      [
        "ide",
        "a"
      ],
      [
        "v",
        "in"
      ],
      [
        "ser",
        "ious"
      ],
      [
        "fort",
        "un"
      ],
      [
        "it",
        "ed"
      ],
      [
        "re",
        "member"
      ],
      [
        "p",
        "u"
      ],
      [
        "us",
        "ing"
      ],
      [
        "au",
        "ght"
      ],
      [
        "inv",
        "ol"
      ],
      [
        "sc",
        "i"
      ],
      [
        "c",
        "op"
      ],
      [
        "st",
        "up"
      ],
      [
        "st",
        "re"
      ],
      [
        "b",
        "b"
      ],
      [
        "h",
        "ome"
      ],
      [
        "i",
        "se"
      ],
      [
        "fa",
        "ce"
      ],
      [
        "her",
        "o"
      ],
      [
        "k",
        "er"
      ],
      [
        "ap",
        "point"
      ],
      [
        "produ",
        "ction"
      ],
      [
        "giv",
        "en"
      ],
      [
        "simp",
        "ly"
      ],
      [
        "su",
        "c"
      ],
      [
        "ist",
        "s"
      ],
      [
        "you",
        "re"
      ],
      [
        "is",
        "m"
      ],
      [
        "beli",
        "ev"
      ],
      [
        "s",
        "il"
      ],
      [
        "ex",
        "p"
      ],
      [
        "s",
        "ong"
      ],
      [
        "att",
        "empt"
      ],
      [
        "stup",
        "id"
      ],
      [
        "ev",
        "il"
      ],
      [
        "the",
        "y"
      ],
      [
        "v",
        "il"
      ],
      [
        "tr",
        "ay"
      ],
      [
        "dis",
        "appoint"
      ],
      [
        "s",
        "ad"
      ],
      [
        "d",
        "re"
      ],
      [
        "kid",
        "s"
      ],
      [
        "r",
        "ent"
      ],
      [
        "d",
        "ou"
      ],
      [
        "cle",
        "ar"
      ],
      [
        "wr",
        "ong"
      ],
      [
        "hol",
        "lywood"
      ],
      [
        "b",
        "ra"
      ],
      [
        "m",
        "ess"
      ],
      [
        "por",
        "tray"
      ],
      [
        "t",
        "en"
      ],
      [
        "op",
        "en"
      ],
      [
        "p",
        "ass"
      ],
      [
        "end",
        "s"
      ],
      [
        "d",
        "ark"
      ],
      [
        "al",
        "ong"
      ],
      [
        "complete",
        "ly"
      ],
      [
        "bud",
        "get"
      ],
      [
        "sup",
        "posed"
      ],
      [
        "ul",
        "l"
      ],
      [
        "ne",
        "ar"
      ],
      [
        "a",
        "il"
      ],
      [
        "ful",
        "l"
      ],
      [
        "mar",
        "k"
      ],
      [
        "ab",
        "sol"
      ],
      [
        "n",
        "um"
      ],
      [
        "e",
        "ither"
      ],
      [
        "ex",
        "cept"
      ],
      [
        "b",
        "and"
      ],
      [
        "bor",
        "ing"
      ],
      [
        "cho",
        "ol"
      ],
      [
        "d",
        "ri"
      ],
      [
        "absol",
        "ute"
      ],
      [
        "li",
        "g"
      ],
      [
        "am",
        "az"
      ],
      [
        "r",
        "ess"
      ],
      [
        "ck",
        "s"
      ],
      [
        "class",
        "ic"
      ],
      [
        "l",
        "ar"
      ],
      [
        "ard",
        "s"
      ],
      [
        "sm",
        "all"
      ],
      [
        "n",
        "ed"
      ],
      [
        "ro",
        "ss"
      ],
      [
        "performan",
        "ces"
      ],
      [
        "at",
        "ure"
      ],
      [
        "partic",
        "ular"
      ],
      [
        "j",
        "ack"
      ],
      [
        "in",
        "ed"
      ],
      [
        "fa",
        "il"
      ],
      [
        "s",
        "chool"
      ],
      [
        "cons",
        "ider"
      ],
      [
        "itt",
        "en"
      ],
      [
        "camer",
        "a"
      ],
      [
        "a",
        "ir"
      ],
      [
        "li",
        "st"
      ],
      [
        "at",
        "ic"
      ],
      [
        "pow",
        "er"
      ],
      [
        "ex",
        "am"
      ],
      [
        "ch",
        "ild"
      ],
      [
        "aw",
        "ful"
      ],
      [
        "so",
        "ci"
      ],
      [
        "vi",
        "ol"
      ],
      [
        "se",
        "l"
      ],
      [
        "e",
        "mot"
      ],
      [
        "n",
        "or"
      ],
      [
        "wom",
        "en"
      ],
      [
        "tru",
        "ly"
      ],
      [
        "mur",
        "der"
      ],
      [
        "str",
        "u"
      ],
      [
        "vide",
        "o"
      ],
      [
        "c",
        "as"
      ],
      [
        "v",
        "ent"
      ],
      [
        "m",
        "id"
      ],
      [
        "star",
        "s"
      ],
      [
        "ch",
        "il"
      ],
      [
        "pres",
        "ent"
      ],
      [
        "read",
        "y"
      ],
      [
        "n",
        "ext"
      ],
      [
        "g",
        "i"
      ],
      [
        "f",
        "ant"
      ],
      [
        "ca",
        "se"
      ],
      [
        "m",
        "r"
      ],
      [
        "fav",
        "or"
      ],
      [
        "li",
        "ve"
      ],
      [
        "cin",
        "em"
      ],
      [
        "b",
        "i"
      ],
      [
        "se",
        "ver"
      ],
      [
        "ho",
        "pe"
      ],
      [
        "cou",
        "ple"
      ],
      [
        "defin",
        "ite"
      ],
      [
        "play",
        "ing"
      ],
      [
        "n",
        "ame"
      ],
      [
        "di",
        "e"
      ],
      [
        "h",
        "aps"
      ],
      [
        "sc",
        "ar"
      ],
      [
        "de",
        "li"
      ],
      [
        "ir",
        "d"
      ],
      [
        "o",
        "de"
      ],
      [
        "s",
        "ort"
      ],
      [
        "per",
        "haps"
      ],
      [
        "get",
        "ting"
      ],
      [
        "s",
        "low"
      ],
      [
        "eve",
        "lo"
      ],
      [
        "g",
        "s"
      ],
      [
        "qu",
        "est"
      ],
      [
        "o",
        "thers"
      ],
      [
        "el",
        "s"
      ],
      [
        "it",
        "ies"
      ],
      [
        "g",
        "ar"
      ],
      [
        "di",
        "st"
      ],
      [
        "m",
        "ing"
      ],
      [
        "l",
        "ines"
      ],
      [
        "o",
        "ft"
      ],
      [
        "ograp",
        "hy"
      ],
      [
        "mo",
        "ments"
      ],
      [
        "wonder",
        "ful"
      ],
      [
        "w",
        "in"
      ],
      [
        "in",
        "ess"
      ],
      [
        "mo",
        "ther"
      ],
      [
        "t",
        "om"
      ],
      [
        "d",
        "evelo"
      ],
      [
        "epis",
        "ode"
      ],
      [
        "incl",
        "ud"
      ],
      [
        "p",
        "ol"
      ],
      [
        "p",
        "ath"
      ],
      [
        "ro",
        "om"
      ],
      [
        "sp",
        "ir"
      ],
      [
        "des",
        "er"
      ],
      [
        "r",
        "ing"
      ],
      [
        "st",
        "op"
      ],
      [
        "ter",
        "rible"
      ],
      [
        "a",
        "h"
      ],
      [
        "lo",
        "ved"
      ],
      [
        "wr",
        "itten"
      ],
      [
        "vi",
        "ct"
      ],
      [
        "s",
        "at"
      ],
      [
        "str",
        "ong"
      ],
      [
        "hum",
        "or"
      ],
      [
        "me",
        "et"
      ],
      [
        "fel",
        "t"
      ],
      [
        "ag",
        "es"
      ],
      [
        "oft",
        "en"
      ],
      [
        "le",
        "y"
      ],
      [
        "it",
        "al"
      ],
      [
        "li",
        "ked"
      ],
      [
        "ment",
        "ion"
      ],
      [
        "giv",
        "es"
      ],
      [
        "o",
        "h"
      ],
      [
        "as",
        "ed"
      ],
      [
        "ber",
        "t"
      ],
      [
        "o",
        "c"
      ],
      [
        "act",
        "ress"
      ],
      [
        "un",
        "ch"
      ],
      [
        "il",
        "ity"
      ],
      [
        "definite",
        "ly"
      ],
      [
        "w",
        "er"
      ],
      [
        "ing",
        "ly"
      ],
      [
        "i",
        "red"
      ],
      [
        "dram",
        "a"
      ],
      [
        "br",
        "illi"
      ],
      [
        "y",
        "es"
      ],
      [
        "un",
        "fortun"
      ],
      [
        "ma",
        "g"
      ],
      [
        "di",
        "ct"
      ],
      [
        "sty",
        "le"
      ],
      [
        "ear",
        "ly"
      ],
      [
        "im",
        "press"
      ],
      [
        "ex",
        "peri"
      ],
      [
        "gu",
        "ess"
      ],
      [
        "ag",
        "ed"
      ],
      [
        "tal",
        "ent"
      ],
      [
        "turn",
        "s"
      ],
      [
        "lo",
        "st"
      ],
      [
        "go",
        "d"
      ],
      [
        "ou",
        "ght"
      ],
      [
        "c",
        "ine"
      ],
      [
        "com",
        "ing"
      ],
      [
        "am",
        "s"
      ],
      [
        "chil",
        "dr"
      ],
      [
        "er",
        "e"
      ],
      [
        "be",
        "come"
      ],
      [
        "s",
        "ed"
      ],
      [
        "fa",
        "ir"
      ],
      [
        "fin",
        "ally"
      ],
      [
        "f",
        "l"
      ],
      [
        "dialo",
        "gue"
      ],
      [
        "et",
        "im"
      ],
      [
        "c",
        "la"
      ],
      [
        "ur",
        "es"
      ],
      [
        "t",
        "od"
      ],
      [
        "a",
        "ce"
      ],
      [
        "po",
        "p"
      ],
      [
        "cre",
        "di"
      ],
      [
        "g",
        "un"
      ],
      [
        "re",
        "g"
      ],
      [
        "pl",
        "an"
      ],
      [
        "wh",
        "ite"
      ],
      [
        "d",
        "y"
      ],
      [
        "s",
        "om"
      ],
      [
        "could",
        "nt"
      ],
      [
        "thr",
        "ill"
      ],
      [
        "h",
        "on"
      ],
      [
        "ext",
        "re"
      ],
      [
        "clo",
        "se"
      ],
      [
        "iz",
        "e"
      ],
      [
        "h",
        "un"
      ],
      [
        "tit",
        "le"
      ],
      [
        "possi",
        "ble"
      ],
      [
        "w",
        "ent"
      ],
      [
        "d",
        "ra"
      ],
      [
        "ma",
        "ster"
      ],
      [
        "absolute",
        "ly"
      ],
      [
        "sup",
        "port"
      ],
      [
        "cine",
        "ma"
      ],
      [
        "des",
        "p"
      ],
      [
        "th",
        "em"
      ],
      [
        "t",
        "own"
      ],
      [
        "t",
        "ou"
      ],
      [
        "be",
        "h"
      ],
      [
        "gr",
        "ound"
      ],
      [
        "pict",
        "ure"
      ],
      [
        "b",
        "ri"
      ],
      [
        "p",
        "ast"
      ],
      [
        "blo",
        "od"
      ],
      [
        "wor",
        "se"
      ],
      [
        "wast",
        "e"
      ],
      [
        "certain",
        "ly"
      ],
      [
        "thr",
        "ough"
      ],
      [
        "h",
        "it"
      ],
      [
        "call",
        "ed"
      ],
      [
        "f",
        "ine"
      ],
      [
        "entertain",
        "ing"
      ],
      [
        "ul",
        "ous"
      ],
      [
        "p",
        "sy"
      ],
      [
        "proble",
        "m"
      ],
      [
        "brilli",
        "ant"
      ],
      [
        "m",
        "al"
      ],
      [
        "i",
        "o"
      ],
      [
        "n",
        "s"
      ],
      [
        "end",
        "ed"
      ],
      [
        "m",
        "as"
      ],
      [
        "con",
        "f"
      ],
      [
        "over",
        "all"
      ],
      [
        "f",
        "ans"
      ],
      [
        "bas",
        "ed"
      ],
      [
        "rel",
        "ation"
      ],
      [
        "tri",
        "es"
      ],
      [
        "begin",
        "ning"
      ],
      [
        "b",
        "all"
      ],
      [
        "k",
        "ers"
      ],
      [
        "le",
        "ar"
      ],
      [
        "p",
        "ing"
      ],
      [
        "extre",
        "me"
      ],
      [
        "c",
        "red"
      ],
      [
        "n",
        "am"
      ],
      [
        "suc",
        "cess"
      ],
      [
        "sever",
        "al"
      ],
      [
        "p",
        "ur"
      ],
      [
        "spo",
        "il"
      ],
      [
        "my",
        "ster"
      ],
      [
        "l",
        "ad"
      ],
      [
        "d",
        "ing"
      ],
      [
        "b",
        "el"
      ],
      [
        "s",
        "w"
      ],
      [
        "al",
        "i"
      ],
      [
        "g",
        "y"
      ],
      [
        "li",
        "ves"
      ],
      [
        "work",
        "s"
      ],
      [
        "e",
        "k"
      ],
      [
        "s",
        "ou"
      ],
      [
        "kill",
        "er"
      ],
      [
        "g",
        "ra"
      ],
      [
        "direct",
        "ion"
      ],
      [
        "ent",
        "ion"
      ],
      [
        "know",
        "n"
      ],
      [
        "est",
        "er"
      ],
      [
        "te",
        "en"
      ],
      [
        "ment",
        "ary"
      ],
      [
        "tr",
        "ack"
      ],
      [
        "be",
        "comes"
      ],
      [
        "al",
        "ready"
      ],
      [
        "wr",
        "iting"
      ],
      [
        "b",
        "en"
      ],
      [
        "mi",
        "cha"
      ],
      [
        "vis",
        "ion"
      ],
      [
        "or",
        "d"
      ],
      [
        "want",
        "ed"
      ],
      [
        "girl",
        "s"
      ],
      [
        "v",
        "an"
      ],
      [
        "gu",
        "ys"
      ],
      [
        "exam",
        "ple"
      ],
      [
        "n",
        "one"
      ],
      [
        "through",
        "out"
      ],
      [
        "de",
        "cid"
      ],
      [
        "day",
        "s"
      ],
      [
        "seem",
        "ed"
      ],
      [
        "u",
        "es"
      ],
      [
        "desp",
        "ite"
      ],
      [
        "z",
        "omb"
      ],
      [
        "de",
        "p"
      ],
      [
        "childr",
        "en"
      ],
      [
        "le",
        "g"
      ],
      [
        "pla",
        "in"
      ],
      [
        "j",
        "or"
      ],
      [
        "p",
        "at"
      ],
      [
        "iz",
        "ed"
      ],
      [
        "unfortun",
        "ately"
      ],
      [
        "her",
        "e"
      ],
      [
        "tou",
        "ch"
      ],
      [
        "wi",
        "sh"
      ],
      [
        "d",
        "aught"
      ],
      [
        "fin",
        "al"
      ],
      [
        "li",
        "e"
      ],
      [
        "li",
        "ce"
      ],
      [
        "su",
        "sp"
      ],
      [
        "hi",
        "story"
      ],
      [
        "in",
        "di"
      ],
      [
        "ro",
        "ck"
      ],
      [
        "ant",
        "ic"
      ],
      [
        "relation",
        "ship"
      ],
      [
        "us",
        "es"
      ],
      [
        "qu",
        "ality"
      ],
      [
        "al",
        "low"
      ],
      [
        "fo",
        "ot"
      ],
      [
        "b",
        "ed"
      ],
      [
        "g",
        "ame"
      ],
      [
        "amaz",
        "ing"
      ],
      [
        "an",
        "no"
      ],
      [
        "l",
        "in"
      ],
      [
        "f",
        "em"
      ],
      [
        "vil",
        "la"
      ],
      [
        "u",
        "de"
      ],
      [
        "ri",
        "s"
      ],
      [
        "tot",
        "ally"
      ],
      [
        "con",
        "vin"
      ],
      [
        "micha",
        "el"
      ],
      [
        "h",
        "op"
      ],
      [
        "fli",
        "ck"
      ],
      [
        "h",
        "am"
      ],
      [
        "w",
        "ont"
      ],
      [
        "ar",
        "r"
      ],
      [
        "tod",
        "ay"
      ],
      [
        "want",
        "s"
      ],
      [
        "te",
        "ch"
      ],
      [
        "c",
        "an"
      ],
      [
        "el",
        "ess"
      ],
      [
        "you",
        "ll"
      ],
      [
        "de",
        "al"
      ],
      [
        "st",
        "ay"
      ],
      [
        "wi",
        "se"
      ],
      [
        "d",
        "est"
      ],
      [
        "beh",
        "ind"
      ],
      [
        "col",
        "le"
      ],
      [
        "so",
        "on"
      ],
      [
        "wr",
        "iter"
      ],
      [
        "usu",
        "al"
      ],
      [
        "som",
        "etim"
      ],
      [
        "b",
        "us"
      ],
      [
        "en",
        "ch"
      ],
      [
        "st",
        "ra"
      ],
      [
        "m",
        "ad"
      ],
      [
        "f",
        "re"
      ],
      [
        "stu",
        "ff"
      ],
      [
        "c",
        "ity"
      ],
      [
        "f",
        "ig"
      ],
      [
        "s",
        "le"
      ],
      [
        "st",
        "ri"
      ],
      [
        "un",
        "i"
      ],
      [
        "s",
        "or"
      ],
      [
        "cr",
        "it"
      ],
      [
        "ro",
        "b"
      ],
      [
        "co",
        "st"
      ],
      [
        "th",
        "row"
      ],
      [
        "m",
        "il"
      ],
      [
        "they",
        "re"
      ],
      [
        "r",
        "on"
      ],
      [
        "do",
        "cu"
      ],
      [
        "gen",
        "re"
      ],
      [
        "enjoy",
        "ed"
      ],
      [
        "h",
        "ot"
      ],
      [
        "part",
        "s"
      ],
      [
        "h",
        "old"
      ],
      [
        "st",
        "o"
      ],
      [
        "im",
        "port"
      ],
      [
        "ey",
        "es"
      ],
      [
        "int",
        "el"
      ],
      [
        "cont",
        "in"
      ],
      [
        "tr",
        "ans"
      ],
      [
        "um",
        "b"
      ],
      [
        "or",
        "ge"
      ],
      [
        "ist",
        "er"
      ],
      [
        "es",
        "e"
      ],
      [
        "l",
        "ate"
      ],
      [
        "favor",
        "ite"
      ],
      [
        "b",
        "y"
      ],
      [
        "d",
        "am"
      ],
      [
        "er",
        "y"
      ],
      [
        "app",
        "arent"
      ],
      [
        "po",
        "lice"
      ],
      [
        "start",
        "s"
      ],
      [
        "st",
        "ep"
      ],
      [
        "wh",
        "ere"
      ],
      [
        "g",
        "ave"
      ],
      [
        "h",
        "ell"
      ],
      [
        "l",
        "er"
      ],
      [
        "ck",
        "ed"
      ],
      [
        "no",
        "vel"
      ],
      [
        "view",
        "er"
      ],
      [
        "sometim",
        "es"
      ],
      [
        "direct",
        "ed"
      ],
      [
        "bre",
        "ak"
      ],
      [
        "sho",
        "ot"
      ],
      [
        "om",
        "in"
      ],
      [
        "b",
        "al"
      ],
      [
        "le",
        "ts"
      ],
      [
        "mo",
        "ment"
      ],
      [
        "et",
        "c"
      ],
      [
        "su",
        "m"
      ],
      [
        "hor",
        "rible"
      ],
      [
        "exp",
        "lo"
      ],
      [
        "ev",
        "ent"
      ],
      [
        "in",
        "credi"
      ],
      [
        "le",
        "vel"
      ],
      [
        "it",
        "ive"
      ],
      [
        "p",
        "ick"
      ],
      [
        "gr",
        "ou"
      ],
      [
        "ex",
        "act"
      ],
      [
        "ch",
        "ang"
      ],
      [
        "wor",
        "d"
      ],
      [
        "sit",
        "u"
      ],
      [
        "s",
        "ch"
      ],
      [
        "stor",
        "ies"
      ],
      [
        "s",
        "pect"
      ],
      [
        "thin",
        "king"
      ],
      [
        "b",
        "ab"
      ],
      [
        "m",
        "et"
      ],
      [
        "v",
        "ol"
      ],
      [
        "z",
        "y"
      ],
      [
        "in",
        "st"
      ],
      [
        "de",
        "cent"
      ],
      [
        "sh",
        "er"
      ],
      [
        "p",
        "ay"
      ],
      [
        "r",
        "ap"
      ],
      [
        "le",
        "av"
      ],
      [
        "o",
        "id"
      ],
      [
        "et",
        "y"
      ],
      [
        "o",
        "f"
      ],
      [
        "t",
        "ow"
      ],
      [
        "li",
        "m"
      ],
      [
        "fo",
        "re"
      ],
      [
        "ma",
        "jor"
      ],
      [
        "pre",
        "dict"
      ],
      [
        "ke",
        "y"
      ],
      [
        "kill",
        "ed"
      ],
      [
        "vo",
        "ice"
      ],
      [
        "cinem",
        "at"
      ],
      [
        "u",
        "red"
      ],
      [
        "mus",
        "ical"
      ],
      [
        "h",
        "ilar"
      ],
      [
        "ty",
        "p"
      ],
      [
        "br",
        "it"
      ],
      [
        "obvious",
        "ly"
      ],
      [
        "w",
        "illi"
      ],
      [
        "feel",
        "ing"
      ],
      [
        "rid",
        "ic"
      ],
      [
        "ta",
        "king"
      ],
      [
        "po",
        "t"
      ],
      [
        "m",
        "c"
      ],
      [
        "a",
        "go"
      ],
      [
        "po",
        "se"
      ],
      [
        "high",
        "ly"
      ],
      [
        "believ",
        "able"
      ],
      [
        "ad",
        "m"
      ],
      [
        "ap",
        "pro"
      ],
      [
        "mat",
        "ter"
      ],
      [
        "st",
        "ud"
      ],
      [
        "h",
        "us"
      ],
      [
        "pre",
        "ci"
      ],
      [
        "ang",
        "er"
      ],
      [
        "g",
        "n"
      ],
      [
        "look",
        "ed"
      ],
      [
        "et",
        "ic"
      ],
      [
        "f",
        "our"
      ],
      [
        "hear",
        "d"
      ],
      [
        "m",
        "art"
      ],
      [
        "we",
        "ak"
      ],
      [
        "r",
        "ating"
      ],
      [
        "t",
        "re"
      ],
      [
        "or",
        "der"
      ],
      [
        "ty",
        "pe"
      ],
      [
        "he",
        "av"
      ],
      [
        "br",
        "ing"
      ],
      [
        "mar",
        "ri"
      ],
      [
        "te",
        "le"
      ],
      [
        "ff",
        "ic"
      ],
      [
        "j",
        "ok"
      ],
      [
        "s",
        "ent"
      ],
      [
        "mo",
        "ve"
      ],
      [
        "any",
        "way"
      ],
      [
        "f",
        "ast"
      ],
      [
        "v",
        "ar"
      ],
      [
        "str",
        "ange"
      ],
      [
        "fr",
        "ont"
      ],
      [
        "ro",
        "les"
      ],
      [
        "say",
        "s"
      ],
      [
        "le",
        "ave"
      ],
      [
        "cr",
        "u"
      ],
      [
        "ant",
        "ly"
      ],
      [
        "to",
        "ok"
      ],
      [
        "li",
        "ving"
      ],
      [
        "hus",
        "band"
      ],
      [
        "sim",
        "ilar"
      ],
      [
        "f",
        "ut"
      ],
      [
        "ma",
        "kers"
      ],
      [
        "b",
        "ers"
      ],
      [
        "la",
        "w"
      ],
      [
        "j",
        "ames"
      ],
      [
        "ro",
        "ll"
      ],
      [
        "ju",
        "st"
      ],
      [
        "ridic",
        "ulous"
      ],
      [
        "c",
        "ult"
      ],
      [
        "re",
        "cent"
      ],
      [
        "sex",
        "ual"
      ],
      [
        "viol",
        "ence"
      ],
      [
        "daught",
        "er"
      ],
      [
        "b",
        "a"
      ],
      [
        "at",
        "ta"
      ],
      [
        "t",
        "old"
      ],
      [
        "l",
        "ou"
      ],
      [
        "for",
        "get"
      ],
      [
        "co",
        "ol"
      ],
      [
        "a",
        "red"
      ],
      [
        "id",
        "ent"
      ],
      [
        "happ",
        "ens"
      ],
      [
        "man",
        "s"
      ],
      [
        "co",
        "ver"
      ],
      [
        "sh",
        "ing"
      ],
      [
        "particular",
        "ly"
      ],
      [
        "f",
        "ree"
      ],
      [
        "er",
        "a"
      ],
      [
        "pol",
        "it"
      ],
      [
        "happen",
        "ed"
      ],
      [
        "cr",
        "ap"
      ],
      [
        "invol",
        "ved"
      ],
      [
        "se",
        "ason"
      ],
      [
        "wh",
        "e"
      ],
      [
        "experi",
        "ence"
      ],
      [
        "ch",
        "ance"
      ],
      [
        "extreme",
        "ly"
      ],
      [
        "n",
        "atur"
      ],
      [
        "would",
        "nt"
      ],
      [
        "mo",
        "der"
      ],
      [
        "bro",
        "ther"
      ],
      [
        "vi",
        "su"
      ],
      [
        "p",
        "al"
      ],
      [
        "al",
        "one"
      ],
      [
        "op",
        "in"
      ],
      [
        "d",
        "le"
      ],
      [
        "m",
        "ist"
      ],
      [
        "happ",
        "y"
      ],
      [
        "ch",
        "ange"
      ],
      [
        "dou",
        "b"
      ],
      [
        "che",
        "ap"
      ],
      [
        "go",
        "re"
      ],
      [
        "hilar",
        "ious"
      ],
      [
        "d",
        "own"
      ],
      [
        "di",
        "es"
      ],
      [
        "includ",
        "ing"
      ],
      [
        "mem",
        "or"
      ],
      [
        "ent",
        "ly"
      ],
      [
        "h",
        "en"
      ],
      [
        "pa",
        "in"
      ],
      [
        "ple",
        "ase"
      ],
      [
        "u",
        "g"
      ],
      [
        "in",
        "o"
      ],
      [
        "qu",
        "ick"
      ],
      [
        "t",
        "reat"
      ],
      [
        "grou",
        "p"
      ],
      [
        "de",
        "ep"
      ],
      [
        "sy",
        "m"
      ],
      [
        "expect",
        "ed"
      ],
      [
        "sel",
        "f"
      ],
      [
        "sim",
        "ple"
      ],
      [
        "ri",
        "char"
      ],
      [
        "hon",
        "est"
      ],
      [
        "g",
        "row"
      ],
      [
        "stre",
        "et"
      ],
      [
        "anno",
        "ying"
      ],
      [
        "turn",
        "ed"
      ],
      [
        "usu",
        "ally"
      ],
      [
        "j",
        "ap"
      ],
      [
        "fo",
        "c"
      ],
      [
        "ear",
        "th"
      ],
      [
        "sc",
        "ore"
      ],
      [
        "l",
        "an"
      ],
      [
        "th",
        "or"
      ],
      [
        "ar",
        "ch"
      ],
      [
        "ur",
        "b"
      ],
      [
        "sa",
        "ve"
      ],
      [
        "s",
        "we"
      ],
      [
        "eng",
        "lish"
      ],
      [
        "ph",
        "ot"
      ],
      [
        "an",
        "ks"
      ],
      [
        "num",
        "ber"
      ],
      [
        "pa",
        "ul"
      ],
      [
        "pr",
        "om"
      ],
      [
        "ple",
        "as"
      ],
      [
        "av",
        "oid"
      ],
      [
        "care",
        "er"
      ],
      [
        "da",
        "vid"
      ],
      [
        "real",
        "istic"
      ],
      [
        "hu",
        "ge"
      ],
      [
        "coun",
        "try"
      ],
      [
        "a",
        "king"
      ],
      [
        "o",
        "scar"
      ],
      [
        "ent",
        "ial"
      ],
      [
        "ter",
        "ri"
      ],
      [
        "g",
        "ri"
      ],
      [
        "od",
        "es"
      ],
      [
        "fr",
        "ank"
      ],
      [
        "ta",
        "ken"
      ],
      [
        "sc",
        "ary"
      ],
      [
        "ation",
        "al"
      ],
      [
        "che",
        "ck"
      ],
      [
        "j",
        "ud"
      ],
      [
        "ap",
        "art"
      ],
      [
        "ant",
        "s"
      ],
      [
        "serious",
        "ly"
      ],
      [
        "jap",
        "an"
      ],
      [
        "k",
        "y"
      ],
      [
        "real",
        "ity"
      ],
      [
        "pu",
        "b"
      ],
      [
        "exact",
        "ly"
      ],
      [
        "se",
        "cre"
      ],
      [
        "lo",
        "c"
      ],
      [
        "show",
        "n"
      ],
      [
        "sh",
        "ed"
      ],
      [
        "run",
        "ning"
      ],
      [
        "c",
        "art"
      ],
      [
        "moder",
        "n"
      ],
      [
        "dra",
        "w"
      ],
      [
        "im",
        "p"
      ],
      [
        "bo",
        "x"
      ],
      [
        "an",
        "ces"
      ],
      [
        "s",
        "un"
      ],
      [
        "de",
        "c"
      ],
      [
        "who",
        "se"
      ],
      [
        "cinemat",
        "ography"
      ],
      [
        "rele",
        "ased"
      ],
      [
        "shot",
        "s"
      ],
      [
        "j",
        "er"
      ],
      [
        "hour",
        "s"
      ],
      [
        "jok",
        "es"
      ],
      [
        "open",
        "ing"
      ],
      [
        "act",
        "ed"
      ],
      [
        "n",
        "on"
      ],
      [
        "wor",
        "ds"
      ],
      [
        "fam",
        "il"
      ],
      [
        "ac",
        "ross"
      ],
      [
        "stra",
        "ight"
      ],
      [
        "opin",
        "ion"
      ],
      [
        "some",
        "what"
      ],
      [
        "fi",
        "re"
      ],
      [
        "start",
        "ed"
      ],
      [
        "e",
        "u"
      ],
      [
        "es",
        "cap"
      ],
      [
        "itt",
        "ing"
      ],
      [
        "in",
        "a"
      ],
      [
        "s",
        "la"
      ],
      [
        "be",
        "y"
      ],
      [
        "i",
        "th"
      ],
      [
        "res",
        "pect"
      ],
      [
        "ey",
        "e"
      ],
      [
        "mid",
        "dle"
      ],
      [
        "le",
        "e"
      ],
      [
        "ent",
        "y"
      ],
      [
        "r",
        "ated"
      ],
      [
        "ot",
        "t"
      ],
      [
        "find",
        "s"
      ],
      [
        "tal",
        "king"
      ],
      [
        "b",
        "at"
      ],
      [
        "s",
        "am"
      ],
      [
        "am",
        "ong"
      ],
      [
        "b",
        "att"
      ],
      [
        "c",
        "amp"
      ],
      [
        "fam",
        "ous"
      ],
      [
        "epis",
        "odes"
      ],
      [
        "say",
        "ing"
      ],
      [
        "at",
        "or"
      ],
      [
        "intel",
        "lig"
      ],
      [
        "h",
        "av"
      ],
      [
        "vi",
        "r"
      ],
      [
        "import",
        "ant"
      ],
      [
        "ro",
        "bert"
      ],
      [
        "most",
        "ly"
      ],
      [
        "du",
        "e"
      ],
      [
        "docu",
        "mentary"
      ],
      [
        "com",
        "ment"
      ],
      [
        "ast",
        "ic"
      ],
      [
        "predict",
        "able"
      ],
      [
        "develo",
        "p"
      ],
      [
        "direct",
        "ors"
      ],
      [
        "re",
        "f"
      ],
      [
        "sub",
        "ject"
      ],
      [
        "fem",
        "ale"
      ],
      [
        "wr",
        "it"
      ],
      [
        "st",
        "un"
      ],
      [
        "bu",
        "ild"
      ],
      [
        "richar",
        "d"
      ],
      [
        "o",
        "o"
      ],
      [
        "s",
        "es"
      ],
      [
        "sing",
        "le"
      ],
      [
        "sequ",
        "ence"
      ],
      [
        "susp",
        "ense"
      ],
      [
        "r",
        "ay"
      ],
      [
        "f",
        "ive"
      ],
      [
        "y",
        "or"
      ],
      [
        "id",
        "es"
      ],
      [
        "deli",
        "ver"
      ],
      [
        "a",
        "ke"
      ],
      [
        "i",
        "f"
      ],
      [
        "z",
        "e"
      ],
      [
        "s",
        "en"
      ],
      [
        "fe",
        "atur"
      ],
      [
        "tal",
        "k"
      ],
      [
        "appear",
        "s"
      ],
      [
        "apparent",
        "ly"
      ],
      [
        "on",
        "y"
      ],
      [
        "disappoint",
        "ed"
      ],
      [
        "ro",
        "y"
      ],
      [
        "ne",
        "cess"
      ],
      [
        "lo",
        "cal"
      ],
      [
        "go",
        "ld"
      ],
      [
        "be",
        "at"
      ],
      [
        "cre",
        "ep"
      ],
      [
        "re",
        "mind"
      ],
      [
        "se",
        "ts"
      ],
      [
        "em",
        "ent"
      ],
      [
        "ev",
        "ents"
      ],
      [
        "dre",
        "am"
      ],
      [
        "t",
        "ar"
      ],
      [
        "an",
        "a"
      ],
      [
        "at",
        "mo"
      ],
      [
        "cap",
        "t"
      ],
      [
        "song",
        "s"
      ],
      [
        "r",
        "it"
      ],
      [
        "att",
        "ention"
      ],
      [
        "atmo",
        "sp"
      ],
      [
        "bas",
        "ically"
      ],
      [
        "w",
        "ind"
      ],
      [
        "pro",
        "f"
      ],
      [
        "coun",
        "t"
      ],
      [
        "e",
        "qu"
      ],
      [
        "s",
        "ess"
      ],
      [
        "com",
        "ic"
      ],
      [
        "know",
        "s"
      ],
      [
        "brit",
        "ish"
      ],
      [
        "st",
        "ers"
      ],
      [
        "fall",
        "s"
      ],
      [
        "f",
        "ac"
      ],
      [
        "k",
        "new"
      ],
      [
        "ut",
        "ter"
      ],
      [
        "clear",
        "ly"
      ],
      [
        "support",
        "ing"
      ],
      [
        "le",
        "ct"
      ],
      [
        "fut",
        "ure"
      ],
      [
        "rom",
        "antic"
      ],
      [
        "dr",
        "ess"
      ],
      [
        "g",
        "a"
      ],
      [
        "r",
        "ic"
      ],
      [
        "s",
        "n"
      ],
      [
        "tele",
        "vision"
      ],
      [
        "s",
        "l"
      ],
      [
        "mar",
        "y"
      ],
      [
        "eas",
        "ily"
      ],
      [
        "quest",
        "ion"
      ],
      [
        "m",
        "atch"
      ],
      [
        "giv",
        "ing"
      ],
      [
        "proble",
        "ms"
      ],
      [
        "sp",
        "ace"
      ],
      [
        "thrill",
        "er"
      ],
      [
        "g",
        "ang"
      ],
      [
        "mo",
        "ving"
      ],
      [
        "ho",
        "od"
      ],
      [
        "sil",
        "ly"
      ],
      [
        "tell",
        "s"
      ],
      [
        "st",
        "age"
      ],
      [
        "ul",
        "tim"
      ],
      [
        "as",
        "k"
      ],
      [
        "det",
        "ail"
      ],
      [
        "d",
        "el"
      ],
      [
        "ri",
        "ch"
      ],
      [
        "d",
        "ance"
      ],
      [
        "o",
        "st"
      ],
      [
        "r",
        "ad"
      ],
      [
        "pre",
        "mi"
      ],
      [
        "te",
        "am"
      ],
      [
        "ap",
        "preci"
      ],
      [
        "mi",
        "x"
      ],
      [
        "is",
        "ed"
      ],
      [
        "entertain",
        "ment"
      ],
      [
        "m",
        "ater"
      ],
      [
        "n",
        "arr"
      ],
      [
        "b",
        "s"
      ],
      [
        "a",
        "ver"
      ],
      [
        "st",
        "ick"
      ],
      [
        "wh",
        "ats"
      ],
      [
        "c",
        "at"
      ],
      [
        "u",
        "str"
      ],
      [
        "bey",
        "ond"
      ],
      [
        "sh",
        "e"
      ],
      [
        "up",
        "on"
      ],
      [
        "ch",
        "ed"
      ],
      [
        "com",
        "pa"
      ],
      [
        "es",
        "h"
      ],
      [
        "un",
        "like"
      ],
      [
        "ef",
        "fort"
      ],
      [
        "lad",
        "y"
      ],
      [
        "us",
        "ion"
      ],
      [
        "the",
        "at"
      ],
      [
        "tw",
        "ist"
      ],
      [
        "con",
        "st"
      ],
      [
        "wor",
        "king"
      ],
      [
        "secre",
        "t"
      ],
      [
        "as",
        "y"
      ],
      [
        "d",
        "ro"
      ],
      [
        "ab",
        "ility"
      ],
      [
        "whe",
        "ther"
      ],
      [
        "b",
        "ill"
      ],
      [
        "ct",
        "ive"
      ],
      [
        "t",
        "i"
      ],
      [
        "d",
        "ull"
      ],
      [
        "as",
        "pect"
      ],
      [
        "od",
        "d"
      ],
      [
        "sequ",
        "ences"
      ],
      [
        "point",
        "s"
      ],
      [
        "eas",
        "y"
      ],
      [
        "ut",
        "ion"
      ],
      [
        "view",
        "ers"
      ],
      [
        "cart",
        "o"
      ],
      [
        "c",
        "ul"
      ],
      [
        "f",
        "ly"
      ],
      [
        "h",
        "ate"
      ],
      [
        "f",
        "est"
      ],
      [
        "int",
        "ro"
      ],
      [
        "mater",
        "ial"
      ],
      [
        "di",
        "ffic"
      ],
      [
        "enjoy",
        "able"
      ],
      [
        "nam",
        "ed"
      ],
      [
        "pro",
        "gr"
      ],
      [
        "peri",
        "od"
      ],
      [
        "w",
        "ater"
      ],
      [
        "a",
        "ff"
      ],
      [
        "f",
        "lo"
      ],
      [
        "ad",
        "ap"
      ],
      [
        "act",
        "ual"
      ],
      [
        "ge",
        "orge"
      ],
      [
        "myster",
        "y"
      ],
      [
        "fin",
        "ish"
      ],
      [
        "need",
        "s"
      ],
      [
        "d",
        "den"
      ],
      [
        "de",
        "ed"
      ],
      [
        "pre",
        "vious"
      ],
      [
        "set",
        "ting"
      ],
      [
        "t",
        "le"
      ],
      [
        "fe",
        "ature"
      ],
      [
        "ens",
        "ion"
      ],
      [
        "sho",
        "ck"
      ],
      [
        "cid",
        "ent"
      ],
      [
        "l",
        "at"
      ],
      [
        "y",
        "e"
      ],
      [
        "wi",
        "thin"
      ],
      [
        "in",
        "ation"
      ],
      [
        "story",
        "line"
      ],
      [
        "fr",
        "ench"
      ],
      [
        "p",
        "ac"
      ],
      [
        "mo",
        "re"
      ],
      [
        "tr",
        "ou"
      ],
      [
        "ch",
        "es"
      ],
      [
        "ke",
        "pt"
      ],
      [
        "anim",
        "ation"
      ],
      [
        "convin",
        "cing"
      ],
      [
        "tell",
        "ing"
      ],
      [
        "mess",
        "age"
      ],
      [
        "ad",
        "vent"
      ],
      [
        "the",
        "ater"
      ],
      [
        "vi",
        "ce"
      ],
      [
        "lot",
        "s"
      ],
      [
        "ce",
        "ed"
      ],
      [
        "ag",
        "on"
      ],
      [
        "gr",
        "and"
      ],
      [
        "tal",
        "e"
      ],
      [
        "b",
        "unch"
      ],
      [
        "wa",
        "it"
      ],
      [
        "writ",
        "ers"
      ],
      [
        "pr",
        "in"
      ],
      [
        "sequ",
        "el"
      ],
      [
        "vict",
        "im"
      ],
      [
        "at",
        "tr"
      ],
      [
        "ex",
        "ist"
      ],
      [
        "ci",
        "al"
      ],
      [
        "near",
        "ly"
      ],
      [
        "them",
        "e"
      ],
      [
        "o",
        "se"
      ],
      [
        "sur",
        "vi"
      ],
      [
        "hav",
        "ent"
      ],
      [
        "w",
        "ear"
      ],
      [
        "w",
        "ester"
      ],
      [
        "doub",
        "t"
      ],
      [
        "fla",
        "w"
      ],
      [
        "feel",
        "s"
      ],
      [
        "par",
        "ents"
      ],
      [
        "person",
        "al"
      ],
      [
        "j",
        "im"
      ],
      [
        "b",
        "es"
      ],
      [
        "tru",
        "th"
      ],
      [
        "spe",
        "ak"
      ],
      [
        "li",
        "es"
      ],
      [
        "cla",
        "im"
      ],
      [
        "for",
        "ward"
      ],
      [
        "s",
        "light"
      ],
      [
        "kill",
        "s"
      ],
      [
        "surpri",
        "sed"
      ],
      [
        "h",
        "om"
      ],
      [
        "iv",
        "es"
      ],
      [
        "ct",
        "or"
      ],
      [
        "cont",
        "ro"
      ],
      [
        "fant",
        "astic"
      ],
      [
        "se",
        "ll"
      ],
      [
        "su",
        "l"
      ],
      [
        "ac",
        "cept"
      ],
      [
        "yor",
        "k"
      ],
      [
        "c",
        "ry"
      ],
      [
        "con",
        "cer"
      ],
      [
        "si",
        "ble"
      ],
      [
        "beg",
        "ins"
      ],
      [
        "fi",
        "ed"
      ],
      [
        "eng",
        "th"
      ],
      [
        "dram",
        "atic"
      ],
      [
        "j",
        "um"
      ],
      [
        "p",
        "on"
      ],
      [
        "r",
        "ound"
      ],
      [
        "d",
        "ol"
      ],
      [
        "do",
        "g"
      ],
      [
        "surpri",
        "sing"
      ],
      [
        "d",
        "on"
      ],
      [
        "r",
        "us"
      ],
      [
        "f",
        "lu"
      ],
      [
        "in",
        "no"
      ],
      [
        "tr",
        "av"
      ],
      [
        "su",
        "dden"
      ],
      [
        "ot",
        "ic"
      ],
      [
        "bu",
        "y"
      ],
      [
        "pub",
        "lic"
      ],
      [
        "ul",
        "ts"
      ],
      [
        "g",
        "an"
      ],
      [
        "un",
        "k"
      ],
      [
        "com",
        "ments"
      ],
      [
        "re",
        "ve"
      ],
      [
        "g",
        "one"
      ],
      [
        "tr",
        "ad"
      ],
      [
        "s",
        "ister"
      ],
      [
        "in",
        "ing"
      ],
      [
        "is",
        "su"
      ],
      [
        "and",
        "y"
      ],
      [
        "sound",
        "track"
      ],
      [
        "rele",
        "ase"
      ],
      [
        "ma",
        "x"
      ],
      [
        "ex",
        "press"
      ],
      [
        "ele",
        "ments"
      ],
      [
        "prof",
        "ess"
      ],
      [
        "disc",
        "over"
      ],
      [
        "typ",
        "ical"
      ],
      [
        "m",
        "el"
      ],
      [
        "ed",
        "iting"
      ],
      [
        "ous",
        "ly"
      ],
      [
        "tri",
        "ed"
      ],
      [
        "med",
        "i"
      ],
      [
        "gener",
        "al"
      ],
      [
        "show",
        "ing"
      ],
      [
        "lar",
        "ge"
      ],
      [
        "diffic",
        "ult"
      ],
      [
        "su",
        "gg"
      ],
      [
        "sol",
        "di"
      ],
      [
        "sugg",
        "est"
      ],
      [
        "view",
        "ing"
      ],
      [
        "fig",
        "ure"
      ],
      [
        "film",
        "ed"
      ],
      [
        "ir",
        "es"
      ],
      [
        "for",
        "d"
      ],
      [
        "not",
        "e"
      ],
      [
        "decid",
        "ed"
      ],
      [
        "dialo",
        "g"
      ],
      [
        "c",
        "atch"
      ],
      [
        "un",
        "g"
      ],
      [
        "con",
        "tain"
      ],
      [
        "natur",
        "al"
      ],
      [
        "po",
        "st"
      ],
      [
        "ur",
        "y"
      ],
      [
        "me",
        "ans"
      ],
      [
        "au",
        "se"
      ],
      [
        "pet",
        "er"
      ],
      [
        "path",
        "etic"
      ],
      [
        "ra",
        "re"
      ],
      [
        "par",
        "is"
      ],
      [
        "stu",
        "di"
      ],
      [
        "fe",
        "ar"
      ],
      [
        "sor",
        "ry"
      ],
      [
        "de",
        "mon"
      ],
      [
        "b",
        "il"
      ],
      [
        "z",
        "z"
      ],
      [
        "some",
        "how"
      ],
      [
        "mean",
        "ing"
      ],
      [
        "en",
        "ing"
      ],
      [
        "lead",
        "s"
      ],
      [
        "p",
        "ul"
      ],
      [
        "th",
        "ird"
      ],
      [
        "i",
        "i"
      ],
      [
        "l",
        "ame"
      ],
      [
        "re",
        "t"
      ],
      [
        "r",
        "en"
      ],
      [
        "t",
        "or"
      ],
      [
        "li",
        "er"
      ],
      [
        "ex",
        "e"
      ],
      [
        "psy",
        "cho"
      ],
      [
        "w",
        "it"
      ],
      [
        "p",
        "y"
      ],
      [
        "bus",
        "iness"
      ],
      [
        "c",
        "ro"
      ],
      [
        "v",
        "amp"
      ],
      [
        "great",
        "est"
      ],
      [
        "we",
        "ird"
      ],
      [
        "b",
        "ul"
      ],
      [
        "ag",
        "ree"
      ],
      [
        "ph",
        "il"
      ],
      [
        "b",
        "la"
      ],
      [
        "appe",
        "al"
      ],
      [
        "cri",
        "me"
      ],
      [
        "br",
        "ought"
      ],
      [
        "intro",
        "du"
      ],
      [
        "atmosp",
        "here"
      ],
      [
        "bo",
        "ys"
      ],
      [
        "pri",
        "son"
      ],
      [
        "imag",
        "ine"
      ],
      [
        "e",
        "th"
      ],
      [
        "f",
        "red"
      ],
      [
        "h",
        "ur"
      ],
      [
        "sh",
        "ame"
      ],
      [
        "zomb",
        "ie"
      ],
      [
        "i",
        "gh"
      ],
      [
        "who",
        "s"
      ],
      [
        "l",
        "iter"
      ],
      [
        "p",
        "ure"
      ],
      [
        "ac",
        "cent"
      ],
      [
        "fi",
        "el"
      ],
      [
        "possi",
        "bly"
      ],
      [
        "gh",
        "ost"
      ],
      [
        "what",
        "ever"
      ],
      [
        "des",
        "cri"
      ],
      [
        "h",
        "ic"
      ],
      [
        "read",
        "ing"
      ],
      [
        "t",
        "ast"
      ],
      [
        "lear",
        "n"
      ],
      [
        "g",
        "est"
      ],
      [
        "con",
        "ne"
      ],
      [
        "in",
        "deed"
      ],
      [
        "re",
        "vol"
      ],
      [
        "che",
        "es"
      ],
      [
        "i",
        "ally"
      ],
      [
        "n",
        "et"
      ],
      [
        "o",
        "ther"
      ],
      [
        "back",
        "ground"
      ],
      [
        "review",
        "s"
      ],
      [
        "event",
        "ually"
      ],
      [
        "f",
        "it"
      ],
      [
        "stand",
        "ing"
      ],
      [
        "aver",
        "age"
      ],
      [
        "g",
        "ed"
      ],
      [
        "b",
        "low"
      ],
      [
        "ok",
        "ay"
      ],
      [
        "we",
        "ek"
      ],
      [
        "poor",
        "ly"
      ],
      [
        "o",
        "ffer"
      ],
      [
        "you",
        "ve"
      ],
      [
        "ap",
        "e"
      ],
      [
        "surpri",
        "se"
      ],
      [
        "premi",
        "se"
      ],
      [
        "un",
        "ity"
      ],
      [
        "te",
        "ach"
      ],
      [
        "japan",
        "ese"
      ],
      [
        "be",
        "ar"
      ],
      [
        "pro",
        "ject"
      ],
      [
        "fi",
        "ction"
      ],
      [
        "stru",
        "gg"
      ],
      [
        "wr",
        "ite"
      ],
      [
        "lu",
        "ck"
      ],
      [
        "spir",
        "it"
      ],
      [
        "s",
        "al"
      ],
      [
        "n",
        "ature"
      ],
      [
        "for",
        "ced"
      ],
      [
        "bab",
        "y"
      ],
      [
        "i",
        "el"
      ],
      [
        "ex",
        "per"
      ],
      [
        "lead",
        "ing"
      ],
      [
        "fla",
        "sh"
      ],
      [
        "jo",
        "e"
      ],
      [
        "f",
        "u"
      ],
      [
        "th",
        "ank"
      ],
      [
        "effect",
        "ive"
      ],
      [
        "fr",
        "esh"
      ],
      [
        "log",
        "ical"
      ],
      [
        "mention",
        "ed"
      ],
      [
        "sh",
        "a"
      ],
      [
        "be",
        "came"
      ],
      [
        "con",
        "cl"
      ],
      [
        "kill",
        "ing"
      ],
      [
        "res",
        "ult"
      ],
      [
        "ha",
        "ir"
      ],
      [
        "sle",
        "ep"
      ],
      [
        "screen",
        "play"
      ],
      [
        "need",
        "ed"
      ],
      [
        "r",
        "am"
      ],
      [
        "c",
        "ow"
      ],
      [
        "j",
        "our"
      ],
      [
        "er",
        "ing"
      ],
      [
        "dis",
        "ney"
      ],
      [
        "eu",
        "ro"
      ],
      [
        "p",
        "en"
      ],
      [
        "r",
        "ate"
      ],
      [
        "im",
        "d"
      ],
      [
        "min",
        "ute"
      ],
      [
        "rom",
        "ance"
      ],
      [
        "g",
        "es"
      ],
      [
        "i",
        "ans"
      ],
      [
        "er",
        "ed"
      ],
      [
        "cost",
        "um"
      ],
      [
        "ic",
        "a"
      ],
      [
        "interest",
        "ed"
      ],
      [
        "f",
        "as"
      ],
      [
        "ag",
        "ing"
      ],
      [
        "g",
        "ay"
      ],
      [
        "st",
        "al"
      ],
      [
        "lo",
        "y"
      ],
      [
        "bo",
        "red"
      ],
      [
        "leav",
        "es"
      ],
      [
        "i",
        "or"
      ],
      [
        "am",
        "oun"
      ],
      [
        "memor",
        "able"
      ],
      [
        "c",
        "ers"
      ],
      [
        "re",
        "fer"
      ],
      [
        "th",
        "y"
      ],
      [
        "cred",
        "its"
      ],
      [
        "film",
        "makers"
      ],
      [
        "emot",
        "ional"
      ],
      [
        "d",
        "ev"
      ],
      [
        "un",
        "less"
      ],
      [
        "super",
        "b"
      ],
      [
        "ill",
        "ing"
      ],
      [
        "fr",
        "an"
      ],
      [
        "ven",
        "ge"
      ],
      [
        "meet",
        "s"
      ],
      [
        "s",
        "ick"
      ],
      [
        "situ",
        "ation"
      ],
      [
        "swe",
        "et"
      ],
      [
        "other",
        "wise"
      ],
      [
        "d",
        "ers"
      ],
      [
        "k",
        "ick"
      ],
      [
        "me",
        "ant"
      ],
      [
        "hi",
        "stor"
      ],
      [
        "ster",
        "e"
      ],
      [
        "pop",
        "ular"
      ],
      [
        "emot",
        "ion"
      ],
      [
        "batt",
        "le"
      ],
      [
        "re",
        "co"
      ],
      [
        "uni",
        "que"
      ],
      [
        "t",
        "est"
      ],
      [
        "em",
        "y"
      ],
      [
        "cle",
        "ver"
      ],
      [
        "ear",
        "lier"
      ],
      [
        "bad",
        "ly"
      ],
      [
        "ni",
        "fic"
      ],
      [
        "con",
        "cept"
      ],
      [
[...]
